/* Copyright 2019 The TensorFlow Authors. All Rights Reserved.

Licensed under the Apache License, Version 2.0 (the "License");
you may not use this file except in compliance with the License.
You may obtain a copy of the License at

    http://www.apache.org/licenses/LICENSE-2.0

Unless required by applicable law or agreed to in writing, software
distributed under the License is distributed on an "AS IS" BASIS,
WITHOUT WARRANTIES OR CONDITIONS OF ANY KIND, either express or implied.
See the License for the specific language governing permissions and
limitations under the License.
==============================================================================*/

// Automatically created from a TensorFlow Lite flatbuffer using the command:
// xxd -i magic_wand_model.tflite > magic_wand_model_data.cc
// See the README for a full description of the creation process.

#include "magic_wand_model_data.h"

// We need to keep the data array aligned on some architectures.
#ifdef __has_attribute
#define HAVE_ATTRIBUTE(x) __has_attribute(x)
#else
#define HAVE_ATTRIBUTE(x) 0
#endif
#if HAVE_ATTRIBUTE(aligned) || (defined(__GNUC__) && !defined(__clang__))
#define DATA_ALIGN_ATTRIBUTE __attribute__((aligned(4)))
#else
#define DATA_ALIGN_ATTRIBUTE
#endif

const unsigned char g_magic_wand_model_data[] DATA_ALIGN_ATTRIBUTE = {
    0x20, 0x00, 0x00, 0x00, 0x54, 0x46, 0x4c, 0x33, 0x00, 0x00, 0x00, 0x00, 0x00,
    0x00, 0x12, 0x00, 0x1c, 0x00, 0x04, 0x00, 0x08, 0x00, 0x0c, 0x00, 0x10, 0x00,
    0x14, 0x00, 0x00, 0x00, 0x18, 0x00, 0x12, 0x00, 0x00, 0x00, 0x03, 0x00, 0x00,
    0x00, 0x8c, 0x23, 0x00, 0x00, 0x64, 0x13, 0x00, 0x00, 0x4c, 0x13, 0x00, 0x00,
    0x3c, 0x00, 0x00, 0x00, 0x04, 0x00, 0x00, 0x00, 0x01, 0x00, 0x00, 0x00, 0x0c,
    0x00, 0x00, 0x00, 0x08, 0x00, 0x0c, 0x00, 0x04, 0x00, 0x08, 0x00, 0x08, 0x00,
    0x00, 0x00, 0x08, 0x00, 0x00, 0x00, 0x13, 0x00, 0x00, 0x00, 0x13, 0x00, 0x00,
    0x00, 0x6d, 0x69, 0x6e, 0x5f, 0x72, 0x75, 0x6e, 0x74, 0x69, 0x6d, 0x65, 0x5f,
    0x76, 0x65, 0x72, 0x73, 0x69, 0x6f, 0x6e, 0x00, 0x14, 0x00, 0x00, 0x00, 0xf8,
    0x12, 0x00, 0x00, 0xe4, 0x12, 0x00, 0x00, 0xa8, 0x12, 0x00, 0x00, 0x54, 0x12,
    0x00, 0x00, 0x00, 0x12, 0x00, 0x00, 0xdc, 0x11, 0x00, 0x00, 0xb8, 0x11, 0x00,
    0x00, 0xa4, 0x03, 0x00, 0x00, 0x50, 0x03, 0x00, 0x00, 0xdc, 0x02, 0x00, 0x00,
    0xc8, 0x00, 0x00, 0x00, 0xbc, 0x00, 0x00, 0x00, 0xa8, 0x00, 0x00, 0x00, 0x94,
    0x00, 0x00, 0x00, 0x80, 0x00, 0x00, 0x00, 0x6c, 0x00, 0x00, 0x00, 0x58, 0x00,
    0x00, 0x00, 0x44, 0x00, 0x00, 0x00, 0x30, 0x00, 0x00, 0x00, 0x04, 0x00, 0x00,
    0x00, 0xba, 0xec, 0xff, 0xff, 0x04, 0x00, 0x00, 0x00, 0x10, 0x00, 0x00, 0x00,
    0x31, 0x2e, 0x35, 0x2e, 0x30, 0x00, 0x00, 0x00, 0x00, 0x00, 0x00, 0x00, 0x00,
    0x00, 0x00, 0x00, 0x00, 0x00, 0x00, 0x00, 0x00, 0x00, 0x00, 0x00, 0x00, 0x00,
    0x00, 0x00, 0x24, 0xe1, 0xff, 0xff, 0x00, 0x00, 0x00, 0x00, 0x00, 0x00, 0x00,
    0x00, 0x00, 0x00, 0x00, 0x00, 0x34, 0xe1, 0xff, 0xff, 0x00, 0x00, 0x00, 0x00,
    0x00, 0x00, 0x00, 0x00, 0x00, 0x00, 0x00, 0x00, 0x44, 0xe1, 0xff, 0xff, 0x00,
    0x00, 0x00, 0x00, 0x00, 0x00, 0x00, 0x00, 0x00, 0x00, 0x00, 0x00, 0x54, 0xe1,
    0xff, 0xff, 0x00, 0x00, 0x00, 0x00, 0x00, 0x00, 0x00, 0x00, 0x00, 0x00, 0x00,
    0x00, 0x64, 0xe1, 0xff, 0xff, 0x00, 0x00, 0x00, 0x00, 0x00, 0x00, 0x00, 0x00,
    0x00, 0x00, 0x00, 0x00, 0x74, 0xe1, 0xff, 0xff, 0x00, 0x00, 0x00, 0x00, 0x00,
    0x00, 0x00, 0x00, 0x00, 0x00, 0x00, 0x00, 0x84, 0xe1, 0xff, 0xff, 0x00, 0x00,
    0x00, 0x00, 0x00, 0x00, 0x00, 0x00, 0x00, 0x00, 0x00, 0x00, 0x94, 0xe1, 0xff,
    0xff, 0x00, 0x00, 0x00, 0x00, 0x5a, 0xed, 0xff, 0xff, 0x04, 0x00, 0x00, 0x00,
    0x00, 0x02, 0x00, 0x00, 0xa8, 0xd8, 0x81, 0x9d, 0xc3, 0xe9, 0xbd, 0xc2, 0xf9,
    0x4f, 0xeb, 0x0d, 0x14, 0xe9, 0xc3, 0x2e, 0xe9, 0x29, 0xf3, 0x2e, 0xf6, 0xf8,
    0xe8, 0xf7, 0xf6, 0x18, 0xf5, 0x1b, 0xf9, 0x08, 0xf1, 0x00, 0x12, 0x30, 0xd4,
    0xec, 0xe6, 0xb5, 0x22, 0x20, 0xf8, 0xd1, 0xec, 0x31, 0x20, 0xcc, 0xff, 0xf4,
    0xec, 0xcd, 0xf7, 0x23, 0xeb, 0xec, 0x24, 0x01, 0xde, 0xf0, 0x14, 0x0d, 0xdc,
    0x81, 0xd5, 0x0d, 0xaf, 0xd6, 0x07, 0x11, 0xf5, 0xf5, 0xf9, 0xef, 0xce, 0xde,
    0x0d, 0xe6, 0x07, 0xdb, 0x18, 0x7f, 0xda, 0xfb, 0xf2, 0xc7, 0xcf, 0xe2, 0xeb,
    0x04, 0x59, 0xf7, 0xe3, 0xe4, 0x04, 0x09, 0xf1, 0xeb, 0x1d, 0x34, 0x12, 0xf8,
    0x03, 0x05, 0x2f, 0x05, 0x0f, 0x2c, 0x01, 0x0a, 0xe8, 0xe0, 0xd6, 0xfe, 0x01,
    0xc2, 0x06, 0x0c, 0xfd, 0x9e, 0xc5, 0xfd, 0xfd, 0x81, 0x06, 0xf9, 0x01, 0xa2,
    0xb7, 0xfd, 0x01, 0x03, 0xe0, 0xcc, 0x2d, 0x40, 0x0c, 0xf4, 0xfb, 0xff, 0xb5,
    0xc5, 0x51, 0x00, 0x00, 0xd2, 0xf5, 0x07, 0xd2, 0xbe, 0xbb, 0xf2, 0xf3, 0x1f,
    0xf9, 0x81, 0x38, 0x7f, 0xbf, 0xda, 0xf3, 0x0a, 0xd8, 0xec, 0xf2, 0xe9, 0x16,
    0xc2, 0xc2, 0x28, 0x2b, 0x16, 0x03, 0xc1, 0xdc, 0xcc, 0xb7, 0x53, 0x28, 0x03,
    0x93, 0x36, 0x26, 0xd4, 0xaf, 0xb5, 0x23, 0x02, 0x85, 0x7f, 0x23, 0x35, 0x53,
    0x9a, 0x3b, 0xe8, 0x35, 0x4e, 0xee, 0xcf, 0xde, 0x3a, 0x7f, 0xe3, 0xed, 0x22,
    0x2c, 0xbd, 0xb9, 0xbb, 0xda, 0xef, 0xb5, 0x30, 0x5c, 0xcd, 0xbe, 0x8e, 0xa0,
    0x10, 0xb5, 0x10, 0xdf, 0xf6, 0xf5, 0x99, 0xe7, 0xf7, 0xa5, 0xe7, 0xfb, 0xf3,
    0x0f, 0xa3, 0xe5, 0x0c, 0xf7, 0xe5, 0x18, 0x7f, 0xfb, 0xab, 0xec, 0x3b, 0xe6,
    0xfb, 0x02, 0xe7, 0xf5, 0xef, 0xcc, 0xd8, 0x34, 0xe2, 0xbe, 0xdd, 0xdc, 0x46,
    0xff, 0xec, 0xc6, 0xef, 0xcf, 0xb9, 0xf7, 0x12, 0x19, 0xf3, 0xcc, 0xef, 0xbe,
    0xaa, 0x14, 0xfb, 0xf0, 0x17, 0xd2, 0xe0, 0x9a, 0xa0, 0xd1, 0x34, 0x01, 0x2e,
    0x30, 0x13, 0x9d, 0x90, 0x81, 0x2e, 0xbf, 0x98, 0xee, 0xf9, 0xca, 0x81, 0x39,
    0xe5, 0x1c, 0x39, 0x11, 0x28, 0xdd, 0xda, 0x26, 0x00, 0x26, 0x3c, 0x06, 0x0a,
    0xe3, 0xe7, 0xea, 0xf3, 0x1d, 0x05, 0x03, 0x01, 0xef, 0xde, 0xe6, 0xf5, 0xe4,
    0xd6, 0xf9, 0x98, 0x3e, 0x07, 0x1f, 0x0e, 0x01, 0xc1, 0x06, 0x89, 0xd8, 0x68,
    0x0d, 0xed, 0x19, 0xc3, 0xf4, 0x81, 0x01, 0x0b, 0x44, 0xe8, 0x04, 0xc9, 0x08,
    0x8b, 0xf4, 0xf4, 0x2f, 0xe5, 0x17, 0xd5, 0x2a, 0x47, 0x59, 0xab, 0xc2, 0xfe,
    0xfa, 0x98, 0xed, 0x5a, 0x51, 0x89, 0x09, 0xb0, 0x84, 0xac, 0xf0, 0xe8, 0x81,
    0x1a, 0x36, 0xca, 0x91, 0x87, 0x17, 0x88, 0x8e, 0x4c, 0x6d, 0xe4, 0xfe, 0x9a,
    0x27, 0x0c, 0x81, 0x94, 0x00, 0xfb, 0xef, 0xcb, 0xfa, 0x00, 0x81, 0xbe, 0x0a,
    0x03, 0xeb, 0xdc, 0x1f, 0xec, 0x9d, 0xca, 0xe0, 0x10, 0x04, 0xe6, 0xf9, 0xe6,
    0xeb, 0x13, 0xf0, 0x10, 0x50, 0xf8, 0xae, 0x18, 0x00, 0x99, 0xc8, 0xea, 0x13,
    0xde, 0x81, 0x1b, 0x7c, 0xf0, 0xf2, 0x96, 0xeb, 0xdc, 0xb6, 0x59, 0xd4, 0xf5,
    0x27, 0xce, 0xa7, 0xdc, 0x11, 0xfb, 0xc7, 0x03, 0x0f, 0xd1, 0x4c, 0x2f, 0xb9,
    0x98, 0x01, 0x03, 0xee, 0x2a, 0x04, 0x37, 0xb7, 0x96, 0xd0, 0xf9, 0xf7, 0x1f,
    0xf2, 0xe3, 0xe8, 0x11, 0xdc, 0x0b, 0x02, 0xfb, 0xde, 0x81, 0x33, 0x3b, 0xb6,
    0xb1, 0xd9, 0x02, 0xe8, 0x1e, 0x1b, 0x37, 0xe2, 0xe2, 0xd6, 0xec, 0xdd, 0xf0,
    0x0c, 0x32, 0x2b, 0x7f, 0x34, 0xc1, 0xe0, 0xeb, 0xe8, 0xf3, 0x0b, 0x0c, 0x1b,
    0xef, 0xe7, 0xe5, 0x6d, 0xe5, 0x22, 0xf2, 0x13, 0xfc, 0x00, 0x00, 0x00, 0x00,
    0x6a, 0xef, 0xff, 0xff, 0x04, 0x00, 0x00, 0x00, 0x60, 0x00, 0x00, 0x00, 0x9d,
    0xd9, 0x7f, 0xf9, 0xd9, 0x54, 0xc7, 0x02, 0x04, 0x08, 0xd3, 0xbf, 0x3a, 0xd0,
    0x81, 0x25, 0xce, 0xee, 0xd8, 0x47, 0x07, 0xd5, 0xd2, 0x89, 0x2e, 0xc3, 0x81,
    0x54, 0x22, 0xe9, 0x39, 0xbe, 0x1d, 0x32, 0x41, 0xed, 0xf0, 0x7f, 0xdd, 0x26,
    0x08, 0xcd, 0xfc, 0xb1, 0x00, 0x1c, 0xa7, 0xc2, 0xdf, 0xd3, 0x4e, 0xfa, 0xd8,
    0x50, 0x19, 0xe1, 0xd0, 0xe9, 0x1f, 0x81, 0x2a, 0x8f, 0xcf, 0xda, 0xf7, 0x2b,
    0x11, 0xc7, 0xb1, 0x3e, 0x81, 0xef, 0xea, 0xe5, 0xa6, 0x18, 0xd3, 0x22, 0x55,
    0xd9, 0xd4, 0x41, 0x81, 0x40, 0xce, 0xdb, 0x81, 0x13, 0xf4, 0x17, 0x2e, 0x1b,
    0x3c, 0x10, 0x0d, 0x59, 0x00, 0x00, 0x00, 0x00, 0xda, 0xef, 0xff, 0xff, 0x04,
    0x00, 0x00, 0x00, 0x40, 0x00, 0x00, 0x00, 0xb9, 0x48, 0xd8, 0x39, 0x2e, 0x03,
    0x06, 0xca, 0xc3, 0x1a, 0x0a, 0x6f, 0xe1, 0xcf, 0xae, 0x5c, 0xbc, 0x81, 0xca,
    0x42, 0x1e, 0xf1, 0xac, 0xc8, 0xab, 0x0a, 0x02, 0x66, 0xd5, 0xc2, 0xae, 0x52,
    0xc3, 0x91, 0xb9, 0x34, 0x15, 0x09, 0x1a, 0xd9, 0xae, 0x1c, 0x19, 0x74, 0xa1,
    0xd1, 0xc2, 0x5b, 0xca, 0x33, 0xcd, 0x15, 0x22, 0x1c, 0x75, 0xd5, 0xbc, 0x10,
    0x09, 0x6a, 0x92, 0xd8, 0xaf, 0x62, 0x00, 0x00, 0x00, 0x00, 0x2a, 0xf0, 0xff,
    0xff, 0x04, 0x00, 0x00, 0x00, 0x00, 0x0e, 0x00, 0x00, 0x31, 0x31, 0xf3, 0x08,
    0xff, 0x18, 0xf7, 0x0c, 0xfa, 0x37, 0xb6, 0xd4, 0x5e, 0x3c, 0x04, 0xec, 0x08,
    0xe0, 0xf5, 0x03, 0xf6, 0x01, 0xe9, 0x0d, 0x32, 0xed, 0x83, 0xdc, 0x41, 0x0e,
    0xe9, 0x01, 0xe8, 0xf5, 0xf5, 0x04, 0x0b, 0x02, 0xee, 0xee, 0xf5, 0xeb, 0x88,
    0xeb, 0x15, 0x01, 0xed, 0xf9, 0xf2, 0xfe, 0x06, 0xf7, 0x1f, 0x1f, 0xf6, 0x14,
    0x01, 0x09, 0xc2, 0xfb, 0xf0, 0x13, 0xf9, 0x08, 0xff, 0x22, 0x04, 0xff, 0x37,
    0x16, 0xdf, 0xfa, 0x0e, 0x15, 0x08, 0xff, 0xe3, 0xf3, 0xf4, 0xfd, 0x02, 0x22,
    0x0e, 0xfd, 0x2e, 0x1d, 0xfe, 0xe7, 0xf3, 0x0d, 0x1a, 0xdc, 0xfe, 0xe8, 0xf4,
    0x02, 0x15, 0x2a, 0x14, 0xee, 0x26, 0x14, 0x0f, 0xed, 0x05, 0x14, 0x0e, 0xe2,
    0x03, 0xf2, 0x04, 0xf9, 0x16, 0x09, 0x03, 0x07, 0x0a, 0x16, 0xfc, 0xed, 0xe8,
    0x0d, 0xf0, 0xe8, 0xfc, 0x01, 0x09, 0x02, 0x04, 0x0d, 0x0a, 0x03, 0x12, 0x12,
    0xfd, 0xfa, 0xdb, 0x04, 0xc9, 0xda, 0x0a, 0xf4, 0x04, 0xf7, 0x0f, 0xf7, 0x0d,
    0x03, 0x15, 0x0d, 0xee, 0xed, 0xf6, 0xff, 0xb6, 0xc9, 0x05, 0xe3, 0x05, 0x00,
    0x21, 0x06, 0xf3, 0x02, 0x0f, 0x02, 0xeb, 0x07, 0xeb, 0x1a, 0xb5, 0xd0, 0x0c,
    0xfc, 0xfe, 0xfe, 0x05, 0xf8, 0x18, 0x09, 0xfe, 0x13, 0xe2, 0x06, 0xe0, 0x01,
    0xb1, 0xbd, 0x0f, 0xf5, 0x07, 0xfb, 0xf0, 0xe6, 0xfd, 0xff, 0xf7, 0x0c, 0xee,
    0x0b, 0xdc, 0x0e, 0xbd, 0xdb, 0xfb, 0x1b, 0x0b, 0x17, 0x11, 0x03, 0x10, 0x08,
    0xec, 0xfd, 0x13, 0x01, 0x23, 0xf7, 0xd3, 0xf8, 0x13, 0x02, 0xfa, 0x1f, 0xe8,
    0xf3, 0xf9, 0xe9, 0x06, 0xea, 0x07, 0xee, 0xec, 0x06, 0xfd, 0xfb, 0xf8, 0x04,
    0xed, 0xfa, 0xfa, 0x05, 0xf1, 0xfb, 0xf2, 0x03, 0x00, 0xf5, 0x10, 0xf2, 0xee,
    0xee, 0x0f, 0xf0, 0xf3, 0xff, 0xf0, 0x0d, 0xe6, 0xf7, 0xf7, 0xf6, 0x00, 0x04,
    0x0c, 0xea, 0xf0, 0x11, 0x0e, 0xef, 0xe7, 0x05, 0xee, 0xed, 0xfb, 0xf2, 0xfe,
    0x01, 0x06, 0x01, 0xf6, 0xe7, 0xea, 0x00, 0xfd, 0xf2, 0x06, 0xed, 0xfd, 0x01,
    0x0f, 0x02, 0xfe, 0x08, 0xf1, 0xf7, 0x01, 0x04, 0xef, 0xfe, 0x01, 0x0b, 0xf5,
    0xfe, 0xf1, 0xf0, 0xf1, 0xe0, 0x01, 0x03, 0xf8, 0x0f, 0x10, 0x00, 0xf1, 0x0c,
    0xe9, 0xf6, 0xed, 0xdf, 0xfc, 0xfe, 0x05, 0xff, 0xea, 0x02, 0xec, 0xf3, 0x17,
    0x01, 0xf0, 0x02, 0x0e, 0x11, 0x08, 0xde, 0x0d, 0xf1, 0xf1, 0xf7, 0xfd, 0x07,
    0xe4, 0xf0, 0xf1, 0x12, 0xfa, 0xf7, 0xf3, 0x09, 0x01, 0xfa, 0x0b, 0xee, 0xfc,
    0xef, 0xf3, 0x03, 0xf6, 0xf9, 0xf7, 0xf3, 0xfa, 0x11, 0xef, 0x0a, 0xf4, 0xe7,
    0xf8, 0x0b, 0x07, 0x01, 0xea, 0xf9, 0x04, 0xec, 0x02, 0xf4, 0xfa, 0x01, 0xe5,
    0xef, 0x0e, 0xf8, 0x01, 0x0c, 0xea, 0xfd, 0x0a, 0xf2, 0xfd, 0xed, 0xf0, 0xfb,
    0x06, 0x05, 0xfe, 0xf4, 0xf4, 0xfe, 0xf5, 0xea, 0x03, 0xed, 0xf3, 0xf2, 0x02,
    0xed, 0x0b, 0x06, 0xe8, 0x05, 0x04, 0x09, 0xeb, 0xf7, 0x02, 0x0e, 0xfc, 0x03,
    0xf8, 0xeb, 0xf4, 0xff, 0x0c, 0xee, 0xed, 0xf8, 0xe9, 0x06, 0xfe, 0xf8, 0xf4,
    0x08, 0xfd, 0xf0, 0xfd, 0xeb, 0xe9, 0xfc, 0xff, 0xfc, 0xfc, 0xe7, 0x03, 0xef,
    0xea, 0xea, 0xaf, 0x20, 0xfe, 0xe2, 0x02, 0xd4, 0xcb, 0x0d, 0xfc, 0xcb, 0x03,
    0xfd, 0x0d, 0xfc, 0xe5, 0xfe, 0x03, 0xd6, 0x20, 0xe1, 0xec, 0xf4, 0xeb, 0xfb,
    0x19, 0x0e, 0x03, 0xf6, 0x12, 0xec, 0xdd, 0xef, 0xed, 0xe8, 0x11, 0xe5, 0xe1,
    0xfe, 0x24, 0x06, 0x07, 0x07, 0xfc, 0x0b, 0xe5, 0x1c, 0xf0, 0x01, 0xf2, 0xdf,
    0x2b, 0xef, 0xf1, 0x00, 0x0e, 0x12, 0x1a, 0xf7, 0xfd, 0x0e, 0xe8, 0x09, 0xe8,
    0xfe, 0x13, 0xcf, 0x1c, 0xe8, 0xf7, 0x09, 0x1e, 0xfe, 0x08, 0xf9, 0x08, 0x08,
    0xd7, 0x2e, 0xed, 0xf9, 0xf5, 0xd7, 0x1b, 0x02, 0xf7, 0x0c, 0x17, 0x15, 0x20,
    0x03, 0xfe, 0x0d, 0xf4, 0x27, 0xf0, 0xf8, 0x05, 0xf2, 0x1d, 0xf5, 0xf7, 0x16,
    0x0d, 0x10, 0x15, 0xff, 0xf5, 0xfc, 0xe9, 0x26, 0xf7, 0xfd, 0xff, 0xe8, 0x18,
    0xef, 0x0a, 0x09, 0x11, 0x19, 0x14, 0x01, 0xfa, 0x00, 0xf0, 0x14, 0xf5, 0xf8,
    0xe6, 0xeb, 0x1d, 0xf3, 0xfe, 0x0e, 0x19, 0x12, 0x0b, 0xfb, 0xff, 0xfc, 0xe4,
    0x26, 0xf4, 0x0d, 0x07, 0xe2, 0x14, 0xed, 0x04, 0x0a, 0x0e, 0x15, 0x06, 0xfd,
    0x04, 0x05, 0xe9, 0x1d, 0xf3, 0xfe, 0xf8, 0xe9, 0x2e, 0xe9, 0xf5, 0x0d, 0x13,
    0x03, 0xff, 0xfa, 0xfe, 0x13, 0x02, 0x1a, 0xf1, 0x06, 0x01, 0x0c, 0x0c, 0xc4,
    0xdc, 0xf7, 0x11, 0xca, 0x06, 0x03, 0x05, 0x17, 0xd3, 0x24, 0xee, 0x06, 0xea,
    0xe8, 0xf8, 0xdb, 0xf5, 0xf5, 0x08, 0xc8, 0xf8, 0x03, 0xff, 0x24, 0xf1, 0x2a,
    0xd8, 0x03, 0xff, 0xd0, 0xd3, 0xe2, 0xfe, 0xda, 0xca, 0xf2, 0xce, 0xfd, 0x01,
    0x0f, 0xf4, 0xf6, 0xcf, 0x01, 0xf9, 0x0d, 0xfb, 0xf9, 0xf5, 0xfb, 0xfb, 0x03,
    0xfc, 0x0b, 0x0b, 0x0e, 0xf0, 0x2a, 0x06, 0xf7, 0x0c, 0x06, 0xf4, 0xdd, 0xf7,
    0xe7, 0xea, 0xfd, 0xee, 0xf9, 0x0a, 0x09, 0xe4, 0x11, 0xfa, 0xe4, 0xee, 0xf8,
    0xe7, 0xe0, 0xf5, 0xf6, 0xfa, 0x0f, 0xed, 0xf5, 0x00, 0x11, 0xf2, 0xf6, 0x02,
    0xf9, 0xfa, 0xfc, 0xf2, 0xf0, 0x09, 0xf6, 0xed, 0xea, 0xf2, 0x02, 0x14, 0x06,
    0xea, 0x04, 0x04, 0xf1, 0xef, 0xda, 0xe6, 0xef, 0x09, 0xe6, 0x25, 0x03, 0xec,
    0xfd, 0x0c, 0xf9, 0xf5, 0xf4, 0xf6, 0xf6, 0x12, 0xec, 0xf7, 0xe6, 0x03, 0xe8,
    0x0a, 0xf6, 0x0a, 0xf6, 0x01, 0xf4, 0xe6, 0xf2, 0xf4, 0xfd, 0x11, 0x01, 0xe6,
    0xf6, 0x18, 0xd9, 0x10, 0xdf, 0x0e, 0xfd, 0xf3, 0x12, 0xf1, 0x09, 0x0c, 0x00,
    0x10, 0x04, 0xf3, 0xfa, 0xf4, 0xdd, 0x00, 0xef, 0x1e, 0x0a, 0xf2, 0xef, 0x0e,
    0xf1, 0x1e, 0xe5, 0x08, 0x0d, 0x00, 0x09, 0x0f, 0xee, 0x01, 0xee, 0x0d, 0x16,
    0xf4, 0xfc, 0x0d, 0x0d, 0x10, 0xea, 0xfa, 0x15, 0xed, 0x11, 0xfe, 0xfa, 0x07,
    0xed, 0x2a, 0x0b, 0xf2, 0x07, 0xfa, 0x08, 0x09, 0xf4, 0xfb, 0x13, 0xf5, 0xea,
    0x01, 0xfa, 0x03, 0x0d, 0x06, 0xf2, 0xf6, 0xfa, 0x16, 0x12, 0x0e, 0x02, 0xfa,
    0xe5, 0xee, 0xe1, 0xf3, 0xfb, 0xef, 0x0c, 0xfd, 0xeb, 0x03, 0x03, 0xf5, 0xf6,
    0xdc, 0x00, 0x08, 0xf5, 0xe0, 0xe5, 0xeb, 0xe2, 0x04, 0x12, 0xd9, 0xdd, 0x09,
    0x02, 0xe2, 0x04, 0xce, 0x01, 0xf1, 0xdd, 0xef, 0xe1, 0x12, 0xdf, 0xe4, 0x0b,
    0xe0, 0x00, 0x04, 0x00, 0xea, 0x18, 0xf9, 0x0a, 0xe0, 0xfe, 0x01, 0xf3, 0x02,
    0x05, 0xfd, 0x0f, 0x10, 0xe1, 0x01, 0xf3, 0xf8, 0x0c, 0xec, 0xf8, 0x01, 0x0f,
    0x1c, 0xeb, 0xf2, 0x09, 0x10, 0x0d, 0x0b, 0x0d, 0x00, 0x07, 0x09, 0x17, 0xe6,
    0x05, 0xfc, 0xef, 0x16, 0xf1, 0xf8, 0x13, 0x1c, 0x0c, 0xf6, 0xf7, 0xf6, 0x0a,
    0xe5, 0x20, 0xeb, 0xfd, 0x03, 0xef, 0x17, 0xf9, 0x0e, 0x0c, 0x0e, 0x07, 0xf4,
    0xf1, 0xfa, 0x11, 0xf2, 0x2a, 0xf6, 0x04, 0x09, 0xdc, 0x01, 0x07, 0xf9, 0xfe,
    0x12, 0x15, 0x04, 0xf8, 0xfe, 0x08, 0xdf, 0x16, 0xee, 0xf5, 0x0f, 0xe1, 0xff,
    0x02, 0xf1, 0xfa, 0x15, 0xe0, 0x10, 0x02, 0xf9, 0x18, 0xee, 0x17, 0xf1, 0xee,
    0x02, 0xf9, 0xed, 0xf7, 0xf0, 0x09, 0x07, 0xe0, 0x07, 0xfb, 0xfe, 0x09, 0xf5,
    0x20, 0xff, 0xf7, 0xf8, 0x07, 0xec, 0xf0, 0xf4, 0xe8, 0x0b, 0xdf, 0xef, 0xf9,
    0xf6, 0xfb, 0xeb, 0x3d, 0xd3, 0x00, 0x04, 0xe1, 0xd5, 0xf0, 0xfb, 0xe0, 0x0d,
    0xe8, 0x01, 0xfb, 0x02, 0x0f, 0xf1, 0x17, 0xd8, 0xfc, 0x21, 0xf3, 0x11, 0xe4,
    0x04, 0xf5, 0x08, 0x0f, 0x08, 0x12, 0x01, 0x12, 0xf8, 0x0e, 0xec, 0xf6, 0xf7,
    0x11, 0x3e, 0xe9, 0x06, 0x1c, 0x12, 0xf0, 0x06, 0xe8, 0xfd, 0x02, 0xf9, 0x1f,
    0xe2, 0x0a, 0x0f, 0x15, 0x09, 0xcc, 0x08, 0x07, 0x06, 0x16, 0x0a, 0xf6, 0x01,
    0x0f, 0xfd, 0x44, 0xf0, 0x02, 0x04, 0x1a, 0x06, 0xe5, 0x05, 0x03, 0x09, 0x02,
    0xf9, 0xfb, 0x04, 0x18, 0x09, 0x05, 0xeb, 0x02, 0x02, 0x08, 0x03, 0xda, 0xf7,
    0xf9, 0xd2, 0xf8, 0xfd, 0x12, 0xf9, 0x14, 0x01, 0x00, 0xd5, 0xf5, 0x41, 0x28,
    0x43, 0x2e, 0xd4, 0x20, 0x04, 0xf6, 0x22, 0x28, 0xf1, 0xf0, 0x66, 0xed, 0xff,
    0xf5, 0xfe, 0xaf, 0xa9, 0xbb, 0xd8, 0xdd, 0x89, 0x08, 0xe3, 0x00, 0xfa, 0xf9,
    0x44, 0xe5, 0xaf, 0x03, 0x11, 0xb7, 0xab, 0xdc, 0xfc, 0xc2, 0x81, 0x1a, 0xcb,
    0x07, 0x00, 0xf0, 0x15, 0xde, 0xc6, 0x0b, 0x02, 0xde, 0xc0, 0xd1, 0xfb, 0xe7,
    0xbe, 0x0d, 0xde, 0x10, 0x03, 0xf9, 0xf6, 0xe9, 0xe2, 0x08, 0x06, 0xf6, 0xe3,
    0xf3, 0xfa, 0xeb, 0xc1, 0x06, 0xda, 0x01, 0x04, 0xfa, 0xf4, 0x06, 0xcc, 0x08,
    0x09, 0xfb, 0xed, 0x05, 0xfb, 0xea, 0xe2, 0xfb, 0xc4, 0x13, 0x00, 0xff, 0x12,
    0x0a, 0xbb, 0x08, 0x0d, 0xdb, 0xdb, 0xf0, 0xf5, 0x03, 0xd3, 0xf6, 0xfe, 0x1d,
    0x02, 0x06, 0x11, 0x02, 0xd1, 0x04, 0x09, 0x08, 0xed, 0xe5, 0xf0, 0xf1, 0xde,
    0xfb, 0xf9, 0x0d, 0x06, 0x0b, 0x08, 0xfe, 0xd2, 0x08, 0x08, 0xe0, 0xe1, 0xd1,
    0xdb, 0xfa, 0xc3, 0x00, 0xf6, 0x12, 0xff, 0xfc, 0x04, 0x0e, 0x9c, 0x05, 0x0d,
    0xfc, 0xc9, 0xde, 0xef, 0xf0, 0xd0, 0x15, 0xfa, 0x0d, 0xfd, 0x0a, 0x07, 0x07,
    0x8a, 0x0d, 0x03, 0xfd, 0xd3, 0xd3, 0xea, 0xdd, 0xd2, 0xf4, 0x0b, 0x08, 0x04,
    0xfa, 0x23, 0x0a, 0xd2, 0x04, 0x07, 0xf5, 0xd3, 0xc7, 0xd3, 0xd7, 0xbe, 0xf8,
    0x0b, 0xf2, 0x02, 0xfe, 0x1d, 0xe6, 0xc8, 0x02, 0x00, 0xfc, 0xce, 0xbd, 0xc5,
    0xde, 0xc1, 0xf1, 0x0a, 0xe9, 0x06, 0x02, 0x42, 0xf7, 0xcb, 0x07, 0x24, 0xda,
    0xe1, 0x0e, 0x01, 0xf5, 0x00, 0xff, 0x1f, 0xe2, 0x01, 0xfd, 0x33, 0x04, 0x22,
    0x06, 0xf4, 0x04, 0xf7, 0xf7, 0xff, 0x04, 0xeb, 0xf1, 0x04, 0xfe, 0xf1, 0x02,
    0x04, 0x13, 0xfe, 0xf1, 0x0d, 0x0a, 0xe5, 0xf3, 0x06, 0x00, 0xf2, 0xf2, 0x06,
    0xf1, 0xe7, 0xfd, 0xf9, 0xee, 0xf1, 0xe6, 0xfc, 0x0c, 0xf6, 0xed, 0xee, 0xed,
    0x05, 0xf6, 0x0a, 0x03, 0x06, 0xf1, 0x01, 0xf8, 0xec, 0xf5, 0x09, 0x0f, 0xf0,
    0x03, 0x00, 0x02, 0x08, 0xfc, 0x04, 0xfc, 0xf2, 0xfc, 0xee, 0x0d, 0xe5, 0xed,
    0xfb, 0x03, 0x08, 0xfa, 0x0a, 0xfd, 0xfb, 0x0c, 0xf8, 0x05, 0xf0, 0xea, 0xf3,
    0x11, 0xf5, 0xff, 0xf0, 0x0d, 0xf4, 0xde, 0x06, 0xff, 0xef, 0x08, 0x02, 0xf6,
    0xe6, 0x0c, 0xfc, 0xf7, 0x05, 0xf1, 0x00, 0x05, 0x05, 0x01, 0x00, 0x03, 0xff,
    0x07, 0x01, 0xf9, 0xeb, 0x04, 0xf3, 0xf8, 0xfd, 0x08, 0x05, 0x0a, 0xf4, 0xef,
    0xf2, 0x06, 0x00, 0xf3, 0xed, 0x01, 0xe7, 0xf8, 0xed, 0xfc, 0x07, 0xed, 0xef,
    0xf3, 0xff, 0x03, 0xf1, 0xec, 0xec, 0x0e, 0xee, 0xef, 0xea, 0xfa, 0xf9, 0x08,
    0xf3, 0xf0, 0x0f, 0xee, 0xe9, 0xeb, 0xf6, 0xec, 0xfd, 0x02, 0x02, 0x02, 0x03,
    0xf0, 0x08, 0x0a, 0xed, 0xf9, 0xf5, 0x06, 0xf7, 0x03, 0x03, 0xfc, 0x02, 0xfc,
    0xef, 0x07, 0xeb, 0xf0, 0x05, 0xff, 0xf1, 0xe3, 0x0a, 0x02, 0xff, 0xed, 0xf8,
    0xfd, 0xfd, 0xfc, 0xf5, 0x07, 0xe6, 0xf5, 0xfe, 0x08, 0xeb, 0xe7, 0x04, 0x0b,
    0xf4, 0xe8, 0xfa, 0xe1, 0x03, 0xf6, 0xf6, 0x0b, 0xed, 0xff, 0x08, 0xfd, 0xfa,
    0xfa, 0x0d, 0xf1, 0xe8, 0xd7, 0xfa, 0x09, 0xec, 0x09, 0xf6, 0x08, 0x00, 0xf6,
    0xf2, 0x05, 0xf1, 0xf4, 0xf4, 0xe2, 0xfd, 0x41, 0x0c, 0x0d, 0xf6, 0x23, 0xb4,
    0xeb, 0x10, 0x0e, 0x17, 0x07, 0xff, 0x1a, 0xff, 0xe8, 0xff, 0x0a, 0x0e, 0xf6,
    0xd8, 0x0b, 0xf1, 0x07, 0x09, 0xf2, 0x1a, 0xeb, 0x08, 0x11, 0x0b, 0xf4, 0x07,
    0x04, 0x08, 0xff, 0xf3, 0x0a, 0xfd, 0x03, 0xfb, 0x03, 0x19, 0xf4, 0x06, 0x06,
    0x05, 0x00, 0x01, 0x03, 0xe0, 0x06, 0xe4, 0xfc, 0xf5, 0x08, 0xfa, 0x0f, 0xf5,
    0xdd, 0xff, 0x06, 0x01, 0xf8, 0x12, 0x01, 0xf4, 0xfc, 0xe5, 0x00, 0xf4, 0x00,
    0xfb, 0x07, 0xf0, 0xe7, 0xfc, 0x03, 0x05, 0x03, 0x10, 0x07, 0xf9, 0xfc, 0xfc,
    0xff, 0xf6, 0xfb, 0xf9, 0xfb, 0xed, 0xe5, 0xfc, 0x06, 0x04, 0x0a, 0x06, 0x02,
    0x00, 0x07, 0xf5, 0x03, 0xf2, 0xf0, 0xff, 0x01, 0xf3, 0xda, 0x03, 0x06, 0x13,
    0xf5, 0x07, 0x05, 0x03, 0xff, 0xe1, 0x01, 0x04, 0x03, 0xfb, 0xfa, 0x22, 0xee,
    0x03, 0xfd, 0x01, 0xec, 0xfb, 0xfe, 0x09, 0xfb, 0xf3, 0x07, 0x09, 0x09, 0xfd,
    0x1e, 0x18, 0xda, 0x03, 0x04, 0x08, 0xfa, 0x09, 0xfd, 0x08, 0x06, 0xee, 0x09,
    0x01, 0x0b, 0xfb, 0x17, 0xf7, 0xe7, 0x02, 0x02, 0xfb, 0xf6, 0x0e, 0x07, 0x0b,
    0xf5, 0xe8, 0x0f, 0xf6, 0x11, 0x08, 0xfb, 0xff, 0xf4, 0x05, 0xf9, 0x0f, 0xfe,
    0x08, 0x03, 0x03, 0xfb, 0xf3, 0x16, 0x0e, 0x17, 0x13, 0xed, 0x0e, 0xf1, 0x03,
    0xef, 0x18, 0xf8, 0xfa, 0x03, 0x1a, 0xf7, 0xf5, 0x1d, 0xc8, 0x1b, 0xfd, 0xf2,
    0xd3, 0xcc, 0xf2, 0xe6, 0x0f, 0xde, 0x06, 0x03, 0xd6, 0x07, 0x11, 0xa5, 0x45,
    0x26, 0xf4, 0xd6, 0xc5, 0xec, 0x1e, 0xc8, 0xda, 0x13, 0x0f, 0x1c, 0xf7, 0x0e,
    0xc3, 0x1a, 0x25, 0xf3, 0x03, 0x01, 0x28, 0x0a, 0xec, 0x03, 0x0b, 0x00, 0x14,
    0xe5, 0xf6, 0x0a, 0xfe, 0x06, 0x0f, 0x06, 0xfb, 0x01, 0x40, 0x24, 0xe9, 0x0e,
    0xfa, 0xef, 0x14, 0xed, 0xf8, 0x0d, 0xff, 0x17, 0x07, 0x06, 0xf8, 0x01, 0x0b,
    0x1d, 0xf2, 0x07, 0xfd, 0xed, 0x18, 0xf4, 0xfc, 0x0f, 0xfe, 0x0b, 0x05, 0xfe,
    0xf6, 0x0d, 0x02, 0x19, 0xee, 0xfe, 0x07, 0xec, 0x23, 0xf7, 0xf1, 0x08, 0x02,
    0x0a, 0xf8, 0x02, 0xf8, 0x10, 0xf7, 0x20, 0xf8, 0x03, 0xf2, 0xff, 0x23, 0x01,
    0xf8, 0x0f, 0x0b, 0x10, 0xf7, 0x01, 0xf6, 0x05, 0x08, 0x21, 0xf3, 0xfb, 0xf6,
    0xf0, 0x21, 0xff, 0xf9, 0x08, 0x03, 0x08, 0xf2, 0xfc, 0xf3, 0xfc, 0xfb, 0x24,
    0xf3, 0xff, 0xff, 0xe3, 0x1c, 0xfe, 0x02, 0x0e, 0x01, 0x02, 0xfd, 0x04, 0xfc,
    0xf9, 0x08, 0x14, 0xf5, 0x00, 0x00, 0xea, 0x0c, 0xfd, 0xed, 0x09, 0x10, 0x04,
    0x0d, 0x00, 0xfe, 0x10, 0x1c, 0x21, 0xf1, 0x03, 0x07, 0xe6, 0x10, 0xf8, 0xf1,
    0x12, 0x0a, 0x13, 0x02, 0xf1, 0x00, 0x06, 0xfd, 0x18, 0xef, 0x08, 0xed, 0xea,
    0x1e, 0xf5, 0xfb, 0x0e, 0x08, 0x0a, 0x17, 0xfe, 0xfb, 0x0d, 0xff, 0x15, 0xf1,
    0x01, 0x01, 0xfe, 0x14, 0xe5, 0xf9, 0x0c, 0x06, 0xf4, 0x11, 0x08, 0xff, 0x0d,
    0x17, 0x16, 0xe2, 0x05, 0xef, 0xfd, 0x1d, 0xfe, 0xf4, 0x08, 0x0e, 0xef, 0x1c,
    0xf5, 0x02, 0x14, 0x07, 0x20, 0xdb, 0x04, 0x13, 0xfc, 0x15, 0x05, 0xfc, 0x0b,
    0x03, 0xec, 0xec, 0xfd, 0xfe, 0x0f, 0xe8, 0xfd, 0xf6, 0x02, 0xfb, 0x0d, 0xf5,
    0x05, 0xe5, 0xf4, 0x1b, 0xd7, 0x13, 0xf4, 0x04, 0x02, 0x11, 0x10, 0x02, 0xfb,
    0xe6, 0xd0, 0x09, 0xe5, 0xd1, 0xcc, 0xcf, 0xe9, 0xf5, 0xf6, 0x0a, 0x17, 0xf9,
    0xf7, 0xe9, 0x03, 0xde, 0xe3, 0xe9, 0xd9, 0xe4, 0xdd, 0xdf, 0xe7, 0xd7, 0xe0,
    0x0c, 0xff, 0xe5, 0x27, 0xe6, 0x13, 0xe1, 0xe4, 0xf1, 0xcc, 0xf0, 0xd5, 0xde,
    0xf5, 0xf3, 0xd9, 0x07, 0x0a, 0xe7, 0x10, 0xf6, 0x0d, 0x01, 0xd8, 0xfc, 0x02,
    0xfc, 0xfa, 0xd5, 0x11, 0x12, 0xe0, 0x05, 0x1b, 0xff, 0xf6, 0xfc, 0x05, 0x1b,
    0x1c, 0x0b, 0x14, 0xfe, 0x0c, 0x03, 0x08, 0xec, 0xfe, 0x04, 0x1b, 0x10, 0x0b,
    0x05, 0x08, 0x05, 0x1a, 0x1a, 0x07, 0x01, 0x1b, 0xfb, 0x1a, 0xdf, 0xf2, 0x0d,
    0x03, 0x04, 0x10, 0x17, 0x01, 0x05, 0x0e, 0x02, 0x16, 0x0f, 0x12, 0xfe, 0x13,
    0xe6, 0x17, 0xfe, 0xf9, 0xf6, 0xf8, 0x08, 0x03, 0xfa, 0x00, 0xff, 0x0e, 0x1c,
    0x02, 0x0a, 0x13, 0xf1, 0x08, 0x0d, 0x04, 0x04, 0x00, 0x05, 0xff, 0x00, 0xfd,
    0x05, 0x13, 0x28, 0xfd, 0xfc, 0x29, 0xec, 0x04, 0xee, 0xf6, 0xf7, 0x20, 0xf8,
    0x00, 0x09, 0x02, 0x18, 0x14, 0xe7, 0xff, 0x03, 0xf7, 0xe0, 0x1a, 0xeb, 0xea,
    0xf6, 0xfc, 0xe2, 0xc9, 0x0f, 0xff, 0xff, 0xf8, 0xcb, 0x02, 0x0e, 0xc2, 0xe8,
    0x02, 0xed, 0xbf, 0xec, 0x05, 0xe1, 0x91, 0x06, 0xf0, 0x00, 0xf2, 0xed, 0xd8,
    0x05, 0xd6, 0xf0, 0xee, 0xf4, 0xc3, 0x11, 0xf1, 0x0e, 0xaf, 0xff, 0xca, 0xf2,
    0xd3, 0xeb, 0xfb, 0x0f, 0xcb, 0x22, 0xc3, 0xf1, 0xe7, 0xe1, 0xea, 0x07, 0xaa,
    0xf4, 0xe5, 0xf4, 0x21, 0x0f, 0xff, 0xf4, 0x3b, 0xf0, 0xe4, 0x19, 0x19, 0xd1,
    0x0a, 0xfe, 0x19, 0xf6, 0x0e, 0x0c, 0xfa, 0x16, 0xf0, 0xec, 0x19, 0xd5, 0x0c,
    0x1e, 0xee, 0xe5, 0xd8, 0x03, 0xfc, 0xfc, 0xf9, 0xf5, 0x0b, 0x01, 0xf4, 0xf7,
    0x1c, 0xdd, 0x19, 0xf9, 0xea, 0xe8, 0xee, 0x01, 0xfc, 0x03, 0xfe, 0xf6, 0x17,
    0xe8, 0x0e, 0xfc, 0x13, 0xe7, 0x1c, 0xee, 0x04, 0xfd, 0xf2, 0xfa, 0xdf, 0x11,
    0x0d, 0x0b, 0x06, 0xdf, 0x0e, 0xfb, 0x02, 0xfb, 0x21, 0xf1, 0xe8, 0x0b, 0x1a,
    0xfd, 0xc0, 0x05, 0xe6, 0x13, 0xf4, 0xf0, 0xef, 0x19, 0xe6, 0x09, 0x18, 0x07,
    0xe9, 0xe4, 0xec, 0xfb, 0xce, 0x14, 0xdf, 0x15, 0xee, 0xc6, 0xf6, 0xf4, 0xd0,
    0x11, 0x2a, 0x0e, 0xdf, 0xd6, 0xc3, 0x09, 0xbd, 0xf6, 0xe4, 0x08, 0xe3, 0xcb,
    0xf9, 0x06, 0xe1, 0xfe, 0xfc, 0x05, 0xde, 0xee, 0x01, 0xff, 0xca, 0x09, 0xbd,
    0x07, 0xf2, 0xe2, 0xfd, 0xff, 0xb8, 0x0d, 0xe7, 0xfd, 0xda, 0xdc, 0x10, 0x10,
    0xc0, 0x13, 0xfd, 0x01, 0xe6, 0xc3, 0x0d, 0xff, 0xc9, 0x0b, 0x0a, 0xf8, 0xd9,
    0xf8, 0xd5, 0x0f, 0xd0, 0x15, 0xd0, 0xff, 0xeb, 0xc0, 0x01, 0xf6, 0xcb, 0x10,
    0xfb, 0x00, 0xdb, 0x04, 0x12, 0x08, 0xc7, 0xf5, 0xe1, 0xff, 0xe9, 0xd1, 0x0c,
    0x01, 0xc7, 0xfa, 0xdb, 0xf8, 0xdd, 0xf4, 0xf4, 0x05, 0xcc, 0xe0, 0xc1, 0xf5,
    0x00, 0xe1, 0x0d, 0x11, 0xcf, 0x1d, 0xf6, 0xef, 0xe6, 0xfe, 0x09, 0x09, 0xc7,
    0x13, 0xdb, 0xee, 0x01, 0xf8, 0x0e, 0x0e, 0xcd, 0x0d, 0xe6, 0xf9, 0xe7, 0x0a,
    0x12, 0x0e, 0xe0, 0x03, 0x12, 0xf3, 0x01, 0xda, 0xd9, 0x1c, 0xfb, 0x24, 0xfb,
    0xf5, 0xf7, 0x2e, 0x00, 0x13, 0x04, 0xb7, 0xc1, 0xe5, 0xda, 0xce, 0xba, 0xc7,
    0xf9, 0xfe, 0xd8, 0x00, 0x0a, 0x0c, 0x05, 0x05, 0x06, 0xd1, 0x12, 0xf4, 0xcb,
    0xdb, 0xc7, 0xe4, 0xf2, 0xf7, 0xb1, 0x07, 0x11, 0x05, 0xff, 0xf4, 0x08, 0xf1,
    0xca, 0x03, 0xe1, 0xde, 0xd2, 0xb6, 0xee, 0x02, 0xb8, 0x02, 0x09, 0xfc, 0x11,
    0xee, 0x0b, 0xf3, 0xdb, 0xeb, 0x06, 0xd2, 0xdc, 0xb6, 0xff, 0x09, 0xe2, 0xfb,
    0x14, 0x09, 0xef, 0xf4, 0x0c, 0xd6, 0x17, 0xf4, 0x18, 0x08, 0xec, 0xde, 0xff,
    0xc7, 0xea, 0x04, 0x0f, 0x07, 0xf7, 0xf6, 0x07, 0x0a, 0x2f, 0x1f, 0x17, 0xff,
    0xed, 0xf7, 0x02, 0xdf, 0xe3, 0x07, 0x13, 0xf0, 0x12, 0x21, 0x06, 0xf5, 0x01,
    0xfc, 0x15, 0x11, 0x00, 0xe9, 0x0c, 0xca, 0x00, 0x05, 0xfa, 0xf3, 0xf8, 0x0b,
    0x07, 0xef, 0x05, 0xf9, 0x0d, 0x10, 0xf7, 0xff, 0x13, 0xd4, 0xfc, 0x0b, 0x05,
    0x05, 0x08, 0x07, 0x02, 0x01, 0xf5, 0x01, 0x12, 0x0b, 0xf6, 0xf6, 0x0d, 0xd1,
    0x0b, 0x05, 0x02, 0xeb, 0xe9, 0x08, 0xf5, 0xfe, 0x0a, 0x1a, 0x10, 0x1b, 0xf6,
    0xf0, 0x19, 0xb8, 0x20, 0x06, 0xec, 0xf7, 0xfa, 0xfa, 0xfe, 0xfd, 0xfb, 0x08,
    0x05, 0x19, 0xfe, 0xfc, 0x1d, 0xdc, 0x17, 0x13, 0xc2, 0xf8, 0xe1, 0xed, 0xe9,
    0x17, 0xfa, 0x04, 0xfc, 0x08, 0xee, 0x03, 0xc8, 0xba, 0x20, 0xf1, 0xb5, 0xec,
    0x11, 0xe7, 0xd0, 0x25, 0xc8, 0xff, 0xff, 0xd4, 0xf2, 0xfe, 0xa4, 0x09, 0x17,
    0xe0, 0xce, 0x0b, 0xeb, 0x08, 0xa5, 0xf6, 0x0e, 0xfb, 0xe5, 0x02, 0xe3, 0xf6,
    0xed, 0xef, 0xfb, 0xfa, 0xf5, 0x05, 0xf5, 0xf3, 0xf3, 0x11, 0x00, 0xea, 0xf8,
    0xe9, 0xef, 0x00, 0x08, 0xf1, 0xf0, 0xf5, 0xec, 0x08, 0x06, 0x01, 0xe9, 0x10,
    0x01, 0xe8, 0xfb, 0xfb, 0xf7, 0xfa, 0xf9, 0x03, 0xfd, 0x00, 0xf5, 0x11, 0xef,
    0xec, 0xe6, 0x0d, 0xf3, 0x02, 0xea, 0x09, 0xf3, 0xf2, 0xef, 0xee, 0x08, 0x08,
    0x00, 0x0b, 0xec, 0xe8, 0xf4, 0xea, 0xff, 0x06, 0x04, 0x0d, 0xfc, 0xf6, 0xf8,
    0xfc, 0x03, 0xfe, 0x02, 0xf1, 0x11, 0xf6, 0xec, 0x0c, 0x07, 0x07, 0x07, 0x0d,
    0xe6, 0x01, 0x0f, 0xff, 0xfd, 0xf8, 0xec, 0x01, 0x02, 0x00, 0xec, 0x0d, 0xff,
    0x0b, 0xf7, 0xec, 0xf6, 0x05, 0xf5, 0x03, 0xf1, 0x08, 0x04, 0xf4, 0xf5, 0xfc,
    0xf7, 0x09, 0xfa, 0x00, 0xf3, 0xf0, 0xec, 0xf0, 0x08, 0xf8, 0x05, 0x02, 0x00,
    0xec, 0x03, 0xf2, 0xef, 0xfc, 0x0e, 0xfc, 0xef, 0x0b, 0xf9, 0xf5, 0x04, 0xfa,
    0xfa, 0xf9, 0x03, 0x00, 0xf0, 0xfb, 0xf9, 0xfd, 0x03, 0x00, 0xef, 0xed, 0xfc,
    0xf8, 0xfb, 0x01, 0x01, 0xf4, 0xee, 0x02, 0x0c, 0x06, 0xf2, 0x0f, 0x0a, 0xfd,
    0xfe, 0xf2, 0xfc, 0xee, 0x02, 0xff, 0x0d, 0xea, 0xf1, 0x09, 0xef, 0xf9, 0xf3,
    0xff, 0xf3, 0xf5, 0xe7, 0x06, 0xfd, 0xe9, 0xec, 0xfe, 0xf8, 0x04, 0xf2, 0xee,
    0x10, 0xf7, 0xf9, 0x08, 0x08, 0x02, 0xf9, 0x08, 0xfd, 0xf7, 0x03, 0xf1, 0xfe,
    0xf3, 0xf0, 0x10, 0xf7, 0x03, 0xf8, 0xff, 0xec, 0xfd, 0xe3, 0x01, 0xea, 0xea,
    0x09, 0xff, 0xf1, 0xec, 0x07, 0x10, 0x0c, 0xf0, 0xf9, 0x33, 0x1a, 0x10, 0x35,
    0xf2, 0x0e, 0xe9, 0x00, 0x03, 0x24, 0x04, 0x09, 0x59, 0x25, 0xe9, 0xfd, 0x07,
    0xe0, 0xfa, 0xf7, 0xf1, 0x02, 0xe3, 0xf5, 0x15, 0x08, 0xf6, 0xfe, 0x44, 0xfa,
    0xe7, 0x16, 0x0e, 0xf5, 0x01, 0xea, 0x1a, 0x02, 0xe1, 0xfc, 0x0a, 0x0f, 0xfb,
    0xf6, 0x05, 0xe8, 0xee, 0x08, 0x09, 0xec, 0xef, 0xf2, 0x2c, 0x1c, 0xe2, 0x06,
    0xf3, 0x12, 0xe6, 0xfd, 0xdf, 0x0f, 0xf6, 0x01, 0x01, 0x10, 0x12, 0xde, 0x31,
    0x13, 0xf1, 0x03, 0x0b, 0x0b, 0xe5, 0x01, 0xeb, 0xde, 0xf4, 0x03, 0x07, 0x02,
    0x0f, 0xeb, 0x19, 0x19, 0xe6, 0xff, 0xf8, 0x09, 0xe5, 0xec, 0x09, 0xfd, 0x05,
    0x0c, 0xfe, 0x0c, 0x03, 0xf4, 0x12, 0x17, 0xde, 0x02, 0xfd, 0x0c, 0xed, 0xef,
    0x28, 0xee, 0x04, 0x11, 0xf8, 0x03, 0xfd, 0xfb, 0x1c, 0x16, 0xeb, 0x04, 0xf0,
    0x02, 0x12, 0xf6, 0x1d, 0xf6, 0xfd, 0x0e, 0xf6, 0xf8, 0x02, 0xf4, 0x08, 0x17,
    0xeb, 0xfb, 0xf6, 0xf4, 0x09, 0x08, 0xd6, 0xeb, 0xf8, 0xfc, 0x12, 0xfc, 0xf8,
    0x09, 0xf7, 0x0e, 0xdd, 0xff, 0x0b, 0xfd, 0xf8, 0xf5, 0x1b, 0xe1, 0x01, 0xf6,
    0x03, 0xfc, 0xf8, 0xef, 0xff, 0x09, 0xd8, 0x09, 0x0c, 0xf6, 0xe9, 0xed, 0x18,
    0xef, 0xf7, 0x0c, 0x09, 0xf2, 0xfe, 0x15, 0xfd, 0x0c, 0xe3, 0xf5, 0xff, 0x00,
    0xcd, 0xf3, 0x32, 0xf7, 0xfb, 0x01, 0x0a, 0xef, 0x09, 0x02, 0xf5, 0x0b, 0xe0,
    0xf9, 0xf5, 0x07, 0xd4, 0xfd, 0x0e, 0x08, 0x07, 0xfd, 0x06, 0x03, 0x33, 0x08,
    0xe5, 0x07, 0xfc, 0xf1, 0x1b, 0x19, 0xe2, 0xe9, 0x18, 0xf0, 0x15, 0x02, 0xf5,
    0xf0, 0xd4, 0x10, 0x2b, 0xf0, 0xef, 0x36, 0xf3, 0xfd, 0x1b, 0x06, 0xd6, 0xf0,
    0x16, 0x11, 0x08, 0x01, 0x05, 0x12, 0x1e, 0x0d, 0x04, 0x18, 0xc5, 0x1b, 0x1a,
    0xf0, 0xec, 0xf9, 0x02, 0x0c, 0x0c, 0xfc, 0xed, 0x18, 0xf9, 0xff, 0x05, 0xe2,
    0xbf, 0x1c, 0xf8, 0xf2, 0xe9, 0xf6, 0xf1, 0xfa, 0x08, 0xe7, 0x02, 0xfc, 0xd2,
    0x0c, 0xf6, 0xfb, 0xed, 0x19, 0xfe, 0x0b, 0xe8, 0xf1, 0xec, 0xe3, 0x1a, 0xfd,
    0xea, 0x07, 0xdf, 0x08, 0xf0, 0xfe, 0x00, 0x13, 0xfb, 0xd8, 0xe0, 0x0b, 0x0b,
    0xed, 0xfb, 0xe4, 0xe4, 0xfb, 0xf2, 0xe3, 0xfa, 0xf6, 0x12, 0x02, 0x10, 0x09,
    0xe9, 0xed, 0x06, 0xf9, 0xfe, 0xdf, 0x02, 0xe7, 0xda, 0x01, 0xf0, 0xcb, 0x2e,
    0xf0, 0x10, 0xe2, 0x0f, 0xeb, 0x0e, 0xfa, 0x10, 0xf1, 0xff, 0xed, 0xf3, 0xf4,
    0xfc, 0x06, 0x1f, 0xf4, 0x0d, 0xe5, 0x09, 0xff, 0x19, 0xf7, 0xf9, 0xe4, 0xe6,
    0xfe, 0x10, 0xfc, 0x10, 0x08, 0x12, 0xf9, 0xf8, 0xed, 0x13, 0x12, 0x16, 0xee,
    0x08, 0xf2, 0xfa, 0x02, 0xfd, 0x09, 0xf9, 0x03, 0x01, 0xfa, 0xfe, 0xeb, 0x0e,
    0xf7, 0x0c, 0xf4, 0xfe, 0xe6, 0xeb, 0xf5, 0xe5, 0x0c, 0x02, 0xe8, 0x03, 0xfa,
    0x01, 0xdd, 0x06, 0x1b, 0xea, 0xeb, 0xfa, 0xf7, 0xe1, 0xfc, 0xd3, 0xf3, 0xfd,
    0xe3, 0xf9, 0x0d, 0xf8, 0xe2, 0x03, 0xe4, 0xf6, 0xd6, 0xf3, 0xe2, 0xe0, 0xea,
    0xc3, 0xe3, 0x07, 0xdf, 0xff, 0xf0, 0xf7, 0xd6, 0x16, 0xdc, 0x01, 0xd6, 0x16,
    0xe7, 0xeb, 0x07, 0xea, 0xeb, 0x11, 0xca, 0x0b, 0xee, 0xf1, 0xf8, 0x14, 0x14,
    0x19, 0xe6, 0x3b, 0x2e, 0xfe, 0x17, 0xe9, 0xe9, 0x1d, 0xf1, 0x1d, 0x33, 0xe8,
    0xf7, 0x44, 0x12, 0x03, 0xeb, 0xf8, 0xf5, 0xfb, 0xf8, 0xda, 0xfe, 0xe4, 0x01,
    0x2b, 0x01, 0xa2, 0xd3, 0x34, 0x06, 0xf0, 0xe2, 0xea, 0xf0, 0x08, 0x08, 0x0b,
    0x16, 0xde, 0x0b, 0xfb, 0xfc, 0xc3, 0xf3, 0x17, 0xdc, 0xf3, 0xf0, 0x22, 0xf0,
    0x08, 0xff, 0x09, 0xfe, 0x06, 0x24, 0xfd, 0xfa, 0xc8, 0x08, 0x15, 0xf5, 0xe3,
    0xfc, 0x21, 0x21, 0x0c, 0xff, 0x06, 0xff, 0xe6, 0xf9, 0x0c, 0xfd, 0xe5, 0x0f,
    0xd3, 0x19, 0xf2, 0x10, 0x04, 0x16, 0x00, 0x00, 0x00, 0x1c, 0x00, 0x07, 0x04,
    0x02, 0xe2, 0xf7, 0xe9, 0xfd, 0xee, 0x13, 0x1f, 0xf5, 0xf9, 0xf8, 0x19, 0x10,
    0xe8, 0x00, 0x19, 0xfe, 0x0f, 0xf8, 0xf2, 0x05, 0x12, 0x06, 0x1a, 0x02, 0xe5,
    0x1c, 0xfd, 0x0a, 0xf4, 0x11, 0xe8, 0xf6, 0xd2, 0xd4, 0xff, 0x0f, 0xf0, 0xfa,
    0xfe, 0xf3, 0xf6, 0x0c, 0x1e, 0xfb, 0xe5, 0xf6, 0xf0, 0xf5, 0xdf, 0xdb, 0x0e,
    0xff, 0xf1, 0xe8, 0x0b, 0xf8, 0x08, 0x0b, 0xfe, 0x04, 0xf2, 0xf4, 0x13, 0xfa,
    0xf3, 0xda, 0x21, 0x0f, 0xfa, 0xef, 0x1d, 0x11, 0x18, 0x06, 0xfa, 0x13, 0xf5,
    0x06, 0x17, 0x1a, 0xd2, 0xfc, 0x09, 0x04, 0xea, 0xe8, 0x37, 0x14, 0x08, 0xed,
    0xe0, 0x0e, 0x03, 0x11, 0x15, 0x21, 0xfe, 0x08, 0xf0, 0x13, 0xf2, 0x02, 0x11,
    0x11, 0xfb, 0x03, 0x01, 0xe9, 0xed, 0x26, 0x12, 0x04, 0x0b, 0xec, 0x0c, 0xfe,
    0x0c, 0x0e, 0x1b, 0x17, 0x06, 0xfc, 0xec, 0xfb, 0x04, 0x10, 0x21, 0x11, 0xe2,
    0xfe, 0xfa, 0xf8, 0xe3, 0x02, 0x00, 0x00, 0x00, 0x00, 0x3a, 0xfe, 0xff, 0xff,
    0x04, 0x00, 0x00, 0x00, 0x08, 0x00, 0x00, 0x00, 0xff, 0xff, 0xff, 0xff, 0xe0,
    0x00, 0x00, 0x00, 0x00, 0x00, 0x00, 0x00, 0x00, 0x00, 0x00, 0x00, 0x00, 0x00,
    0x00, 0x00, 0x5a, 0xfe, 0xff, 0xff, 0x04, 0x00, 0x00, 0x00, 0x10, 0x00, 0x00,
    0x00, 0xbf, 0xff, 0xff, 0xff, 0x63, 0x00, 0x00, 0x00, 0xa4, 0xff, 0xff, 0xff,
    0xd7, 0xff, 0xff, 0xff, 0x00, 0x00, 0x00, 0x00, 0x7a, 0xfe, 0xff, 0xff, 0x04,
    0x00, 0x00, 0x00, 0x40, 0x00, 0x00, 0x00, 0x19, 0x00, 0x00, 0x00, 0xfd, 0xff,
    0xff, 0xff, 0xfc, 0xff, 0xff, 0xff, 0xfb, 0xff, 0xff, 0xff, 0xf6, 0xff, 0xff,
    0xff, 0x25, 0x00, 0x00, 0x00, 0xfc, 0xff, 0xff, 0xff, 0x1d, 0x00, 0x00, 0x00,
    0x04, 0x00, 0x00, 0x00, 0xfd, 0xff, 0xff, 0xff, 0x0a, 0x00, 0x00, 0x00, 0x04,
    0x00, 0x00, 0x00, 0xfd, 0xff, 0xff, 0xff, 0x25, 0x00, 0x00, 0x00, 0x06, 0x00,
    0x00, 0x00, 0x0c, 0x00, 0x00, 0x00, 0x00, 0x00, 0x00, 0x00, 0xca, 0xfe, 0xff,
    0xff, 0x04, 0x00, 0x00, 0x00, 0x40, 0x00, 0x00, 0x00, 0x0b, 0x00, 0x00, 0x00,
    0xf7, 0xff, 0xff, 0xff, 0xfa, 0xff, 0xff, 0xff, 0x0f, 0x00, 0x00, 0x00, 0xe0,
    0xff, 0xff, 0xff, 0xf8, 0xff, 0xff, 0xff, 0xf7, 0xff, 0xff, 0xff, 0xf1, 0xff,
    0xff, 0xff, 0x04, 0x00, 0x00, 0x00, 0x14, 0x00, 0x00, 0x00, 0xe3, 0xff, 0xff,
    0xff, 0xe6, 0xff, 0xff, 0xff, 0x17, 0x00, 0x00, 0x00, 0xf7, 0xff, 0xff, 0xff,
    0xf6, 0xff, 0xff, 0xff, 0xfc, 0xff, 0xff, 0xff, 0x00, 0x00, 0x00, 0x00, 0x1a,
    0xff, 0xff, 0xff, 0x04, 0x00, 0x00, 0x00, 0x20, 0x00, 0x00, 0x00, 0x9f, 0xff,
    0xff, 0xff, 0x0c, 0x00, 0x00, 0x00, 0x01, 0x00, 0x00, 0x00, 0x03, 0x00, 0x00,
    0x00, 0xe5, 0xff, 0xff, 0xff, 0xe0, 0xff, 0xff, 0xff, 0xdb, 0xff, 0xff, 0xff,
    0xea, 0xff, 0xff, 0xff, 0x00, 0x00, 0x00, 0x00, 0x00, 0x00, 0x00, 0x00, 0x00,
    0x00, 0x00, 0x00, 0x94, 0xf3, 0xff, 0xff, 0x00, 0x00, 0x00, 0x00, 0x00, 0x00,
    0x00, 0x00, 0x00, 0x00, 0x00, 0x00, 0xa4, 0xf3, 0xff, 0xff, 0x00, 0x00, 0x00,
    0x00, 0x00, 0x00, 0x00, 0x00, 0x00, 0x00, 0x00, 0x00, 0x0f, 0x00, 0x00, 0x00,
    0x4d, 0x4c, 0x49, 0x52, 0x20, 0x43, 0x6f, 0x6e, 0x76, 0x65, 0x72, 0x74, 0x65,
    0x64, 0x2e, 0x00, 0x01, 0x00, 0x00, 0x00, 0x14, 0x00, 0x00, 0x00, 0x00, 0x00,
    0x0e, 0x00, 0x18, 0x00, 0x04, 0x00, 0x08, 0x00, 0x0c, 0x00, 0x10, 0x00, 0x14,
    0x00, 0x0e, 0x00, 0x00, 0x00, 0x80, 0x02, 0x00, 0x00, 0x74, 0x02, 0x00, 0x00,
    0x68, 0x02, 0x00, 0x00, 0x14, 0x00, 0x00, 0x00, 0x04, 0x00, 0x00, 0x00, 0x04,
    0x00, 0x00, 0x00, 0x6d, 0x61, 0x69, 0x6e, 0x00, 0x00, 0x00, 0x00, 0x08, 0x00,
    0x00, 0x00, 0x04, 0x02, 0x00, 0x00, 0xa0, 0x01, 0x00, 0x00, 0x50, 0x01, 0x00,
    0x00, 0x00, 0x01, 0x00, 0x00, 0xd8, 0x00, 0x00, 0x00, 0x88, 0x00, 0x00, 0x00,
    0x50, 0x00, 0x00, 0x00, 0x04, 0x00, 0x00, 0x00, 0x8a, 0xfe, 0xff, 0xff, 0x00,
    0x00, 0x00, 0x09, 0x04, 0x00, 0x00, 0x00, 0x24, 0x00, 0x00, 0x00, 0x18, 0x00,
    0x00, 0x00, 0x0c, 0x00, 0x00, 0x00, 0x00, 0x00, 0x06, 0x00, 0x08, 0x00, 0x04,
    0x00, 0x06, 0x00, 0x00, 0x00, 0x00, 0x00, 0x80, 0x3f, 0x01, 0x00, 0x00, 0x00,
    0x11, 0x00, 0x00, 0x00, 0x01, 0x00, 0x00, 0x00, 0x10, 0x00, 0x00, 0x00, 0x00,
    0x00, 0x0e, 0x00, 0x18, 0x00, 0x08, 0x00, 0x0c, 0x00, 0x10, 0x00, 0x07, 0x00,
    0x14, 0x00, 0x0e, 0x00, 0x00, 0x00, 0x00, 0x00, 0x00, 0x08, 0x03, 0x00, 0x00,
    0x00, 0x18, 0x00, 0x00, 0x00, 0x0c, 0x00, 0x00, 0x00, 0x04, 0x00, 0x00, 0x00,
    0x88, 0xf4, 0xff, 0xff, 0x01, 0x00, 0x00, 0x00, 0x10, 0x00, 0x00, 0x00, 0x03,
    0x00, 0x00, 0x00, 0x0f, 0x00, 0x00, 0x00, 0x07, 0x00, 0x00, 0x00, 0x04, 0x00,
    0x00, 0x00, 0x06, 0xff, 0xff, 0xff, 0x00, 0x00, 0x00, 0x08, 0x03, 0x00, 0x00,
    0x00, 0x24, 0x00, 0x00, 0x00, 0x18, 0x00, 0x00, 0x00, 0x0c, 0x00, 0x00, 0x00,
    0x00, 0x00, 0x06, 0x00, 0x08, 0x00, 0x07, 0x00, 0x06, 0x00, 0x00, 0x00, 0x00,
    0x00, 0x00, 0x01, 0x01, 0x00, 0x00, 0x00, 0x0f, 0x00, 0x00, 0x00, 0x03, 0x00,
    0x00, 0x00, 0x0e, 0x00, 0x00, 0x00, 0x06, 0x00, 0x00, 0x00, 0x03, 0x00, 0x00,
    0x00, 0x00, 0x00, 0x0a, 0x00, 0x10, 0x00, 0x04, 0x00, 0x08, 0x00, 0x0c, 0x00,
    0x0a, 0x00, 0x00, 0x00, 0x02, 0x00, 0x00, 0x00, 0x10, 0x00, 0x00, 0x00, 0x04,
    0x00, 0x00, 0x00, 0x01, 0x00, 0x00, 0x00, 0x0e, 0x00, 0x00, 0x00, 0x02, 0x00,
    0x00, 0x00, 0x0d, 0x00, 0x00, 0x00, 0x05, 0x00, 0x00, 0x00, 0x76, 0xff, 0xff,
    0xff, 0x00, 0x00, 0x00, 0x05, 0x01, 0x00, 0x00, 0x00, 0x38, 0x00, 0x00, 0x00,
    0x2c, 0x00, 0x00, 0x00, 0x14, 0x00, 0x00, 0x00, 0x00, 0x00, 0x0e, 0x00, 0x14,
    0x00, 0x00, 0x00, 0x04, 0x00, 0x08, 0x00, 0x0c, 0x00, 0x10, 0x00, 0x0e, 0x00,
    0x00, 0x00, 0x01, 0x00, 0x00, 0x00, 0x03, 0x00, 0x00, 0x00, 0x01, 0x00, 0x00,
    0x00, 0x03, 0x00, 0x00, 0x00, 0x01, 0x00, 0x00, 0x00, 0x0d, 0x00, 0x00, 0x00,
    0x01, 0x00, 0x00, 0x00, 0x0c, 0x00, 0x00, 0x00, 0x62, 0xff, 0xff, 0xff, 0x00,
    0x00, 0x00, 0x01, 0x24, 0x00, 0x00, 0x00, 0x18, 0x00, 0x00, 0x00, 0x04, 0x00,
    0x00, 0x00, 0x54, 0xff, 0xff, 0xff, 0x00, 0x00, 0x00, 0x01, 0x01, 0x00, 0x00,
    0x00, 0x01, 0x00, 0x00, 0x00, 0x01, 0x00, 0x00, 0x00, 0x0c, 0x00, 0x00, 0x00,
    0x03, 0x00, 0x00, 0x00, 0x0b, 0x00, 0x00, 0x00, 0x09, 0x00, 0x00, 0x00, 0x02,
    0x00, 0x00, 0x00, 0x00, 0x00, 0x0e, 0x00, 0x1a, 0x00, 0x08, 0x00, 0x0c, 0x00,
    0x10, 0x00, 0x07, 0x00, 0x14, 0x00, 0x0e, 0x00, 0x00, 0x00, 0x00, 0x00, 0x00,
    0x05, 0x01, 0x00, 0x00, 0x00, 0x3c, 0x00, 0x00, 0x00, 0x30, 0x00, 0x00, 0x00,
    0x14, 0x00, 0x00, 0x00, 0x00, 0x00, 0x0e, 0x00, 0x18, 0x00, 0x07, 0x00, 0x08,
    0x00, 0x0c, 0x00, 0x10, 0x00, 0x14, 0x00, 0x0e, 0x00, 0x00, 0x00, 0x00, 0x00,
    0x00, 0x01, 0x03, 0x00, 0x00, 0x00, 0x03, 0x00, 0x00, 0x00, 0x03, 0x00, 0x00,
    0x00, 0x03, 0x00, 0x00, 0x00, 0x01, 0x00, 0x00, 0x00, 0x0b, 0x00, 0x00, 0x00,
    0x01, 0x00, 0x00, 0x00, 0x0a, 0x00, 0x00, 0x00, 0x00, 0x00, 0x0e, 0x00, 0x14,
    0x00, 0x00, 0x00, 0x08, 0x00, 0x0c, 0x00, 0x07, 0x00, 0x10, 0x00, 0x0e, 0x00,
    0x00, 0x00, 0x00, 0x00, 0x00, 0x01, 0x30, 0x00, 0x00, 0x00, 0x24, 0x00, 0x00,
    0x00, 0x10, 0x00, 0x00, 0x00, 0x0c, 0x00, 0x10, 0x00, 0x00, 0x00, 0x08, 0x00,
    0x0c, 0x00, 0x07, 0x00, 0x0c, 0x00, 0x00, 0x00, 0x00, 0x00, 0x00, 0x01, 0x01,
    0x00, 0x00, 0x00, 0x01, 0x00, 0x00, 0x00, 0x01, 0x00, 0x00, 0x00, 0x0a, 0x00,
    0x00, 0x00, 0x03, 0x00, 0x00, 0x00, 0x00, 0x00, 0x00, 0x00, 0x08, 0x00, 0x00,
    0x00, 0x01, 0x00, 0x00, 0x00, 0x01, 0x00, 0x00, 0x00, 0x11, 0x00, 0x00, 0x00,
    0x01, 0x00, 0x00, 0x00, 0x00, 0x00, 0x00, 0x00, 0x12, 0x00, 0x00, 0x00, 0xe4,
    0x0c, 0x00, 0x00, 0xf0, 0x0b, 0x00, 0x00, 0xb0, 0x0a, 0x00, 0x00, 0x34, 0x0a,
    0x00, 0x00, 0xb8, 0x09, 0x00, 0x00, 0x6c, 0x09, 0x00, 0x00, 0xf0, 0x08, 0x00,
    0x00, 0x6c, 0x08, 0x00, 0x00, 0x58, 0x07, 0x00, 0x00, 0xa4, 0x05, 0x00, 0x00,
    0xa0, 0x04, 0x00, 0x00, 0xf4, 0x03, 0x00, 0x00, 0xe8, 0x02, 0x00, 0x00, 0x3c,
    0x02, 0x00, 0x00, 0xa8, 0x01, 0x00, 0x00, 0x04, 0x01, 0x00, 0x00, 0x70, 0x00,
    0x00, 0x00, 0x04, 0x00, 0x00, 0x00, 0x78, 0xf3, 0xff, 0xff, 0x00, 0x00, 0x00,
    0x09, 0x54, 0x00, 0x00, 0x00, 0x12, 0x00, 0x00, 0x00, 0x3c, 0x00, 0x00, 0x00,
    0x14, 0x00, 0x00, 0x00, 0x04, 0x00, 0x00, 0x00, 0x02, 0x00, 0x00, 0x00, 0xff,
    0xff, 0xff, 0xff, 0x04, 0x00, 0x00, 0x00, 0x64, 0xf4, 0xff, 0xff, 0x18, 0x00,
    0x00, 0x00, 0x04, 0x00, 0x00, 0x00, 0x01, 0x00, 0x00, 0x00, 0x80, 0xff, 0xff,
    0xff, 0xff, 0xff, 0xff, 0xff, 0x00, 0x00, 0x00, 0x00, 0x01, 0x00, 0x00, 0x00,
    0x00, 0x00, 0x80, 0x3b, 0x08, 0x00, 0x00, 0x00, 0x49, 0x64, 0x65, 0x6e, 0x74,
    0x69, 0x74, 0x79, 0x00, 0x00, 0x00, 0x00, 0x02, 0x00, 0x00, 0x00, 0x01, 0x00,
    0x00, 0x00, 0x04, 0x00, 0x00, 0x00, 0xe0, 0xf3, 0xff, 0xff, 0x00, 0x00, 0x00,
    0x09, 0x7c, 0x00, 0x00, 0x00, 0x11, 0x00, 0x00, 0x00, 0x54, 0x00, 0x00, 0x00,
    0x14, 0x00, 0x00, 0x00, 0x04, 0x00, 0x00, 0x00, 0x02, 0x00, 0x00, 0x00, 0xff,
    0xff, 0xff, 0xff, 0x04, 0x00, 0x00, 0x00, 0xc4, 0xf3, 0xff, 0xff, 0x30, 0x00,
    0x00, 0x00, 0x24, 0x00, 0x00, 0x00, 0x18, 0x00, 0x00, 0x00, 0x04, 0x00, 0x00,
    0x00, 0x01, 0x00, 0x00, 0x00, 0x40, 0x00, 0x00, 0x00, 0x00, 0x00, 0x00, 0x00,
    0x00, 0x00, 0x00, 0x00, 0x01, 0x00, 0x00, 0x00, 0xf6, 0xdf, 0x7a, 0x40, 0x01,
    0x00, 0x00, 0x00, 0x38, 0x3e, 0x76, 0x43, 0x01, 0x00, 0x00, 0x00, 0x88, 0x55,
    0x3c, 0xc4, 0x1a, 0x00, 0x00, 0x00, 0x73, 0x65, 0x71, 0x75, 0x65, 0x6e, 0x74,
    0x69, 0x61, 0x6c, 0x2f, 0x64, 0x65, 0x6e, 0x73, 0x65, 0x5f, 0x31, 0x2f, 0x42,
    0x69, 0x61, 0x73, 0x41, 0x64, 0x64, 0x00, 0x00, 0x02, 0x00, 0x00, 0x00, 0x01,
    0x00, 0x00, 0x00, 0x04, 0x00, 0x00, 0x00, 0x70, 0xf4, 0xff, 0xff, 0x00, 0x00,
    0x00, 0x09, 0x8c, 0x00, 0x00, 0x00, 0x10, 0x00, 0x00, 0x00, 0x50, 0x00, 0x00,
    0x00, 0x14, 0x00, 0x00, 0x00, 0x04, 0x00, 0x00, 0x00, 0x02, 0x00, 0x00, 0x00,
    0xff, 0xff, 0xff, 0xff, 0x10, 0x00, 0x00, 0x00, 0x54, 0xf4, 0xff, 0xff, 0x2c,
    0x00, 0x00, 0x00, 0x20, 0x00, 0x00, 0x00, 0x14, 0x00, 0x00, 0x00, 0x04, 0x00,
    0x00, 0x00, 0x01, 0x00, 0x00, 0x00, 0x80, 0xff, 0xff, 0xff, 0xff, 0xff, 0xff,
    0xff, 0x01, 0x00, 0x00, 0x00, 0x1a, 0x6f, 0xdd, 0x40, 0x01, 0x00, 0x00, 0x00,
    0xab, 0x91, 0xdc, 0x44, 0x01, 0x00, 0x00, 0x00, 0x00, 0x00, 0x00, 0x00, 0x2e,
    0x00, 0x00, 0x00, 0x73, 0x65, 0x71, 0x75, 0x65, 0x6e, 0x74, 0x69, 0x61, 0x6c,
    0x2f, 0x64, 0x65, 0x6e, 0x73, 0x65, 0x2f, 0x52, 0x65, 0x6c, 0x75, 0x3b, 0x73,
    0x65, 0x71, 0x75, 0x65, 0x6e, 0x74, 0x69, 0x61, 0x6c, 0x2f, 0x64, 0x65, 0x6e,
    0x73, 0x65, 0x2f, 0x42, 0x69, 0x61, 0x73, 0x41, 0x64, 0x64, 0x00, 0x00, 0x02,
    0x00, 0x00, 0x00, 0x01, 0x00, 0x00, 0x00, 0x10, 0x00, 0x00, 0x00, 0x10, 0xf5,
    0xff, 0xff, 0x00, 0x00, 0x00, 0x09, 0x7c, 0x00, 0x00, 0x00, 0x0f, 0x00, 0x00,
    0x00, 0x54, 0x00, 0x00, 0x00, 0x14, 0x00, 0x00, 0x00, 0x04, 0x00, 0x00, 0x00,
    0x02, 0x00, 0x00, 0x00, 0xff, 0xff, 0xff, 0xff, 0xe0, 0x00, 0x00, 0x00, 0xf4,
    0xf4, 0xff, 0xff, 0x30, 0x00, 0x00, 0x00, 0x24, 0x00, 0x00, 0x00, 0x18, 0x00,
    0x00, 0x00, 0x04, 0x00, 0x00, 0x00, 0x01, 0x00, 0x00, 0x00, 0x80, 0xff, 0xff,
    0xff, 0xff, 0xff, 0xff, 0xff, 0x00, 0x00, 0x00, 0x00, 0x01, 0x00, 0x00, 0x00,
    0xf2, 0x51, 0xd3, 0x40, 0x01, 0x00, 0x00, 0x00, 0xa0, 0x7e, 0xd2, 0x44, 0x01,
    0x00, 0x00, 0x00, 0x00, 0x00, 0x00, 0x00, 0x1a, 0x00, 0x00, 0x00, 0x73, 0x65,
    0x71, 0x75, 0x65, 0x6e, 0x74, 0x69, 0x61, 0x6c, 0x2f, 0x66, 0x6c, 0x61, 0x74,
    0x74, 0x65, 0x6e, 0x2f, 0x52, 0x65, 0x73, 0x68, 0x61, 0x70, 0x65, 0x00, 0x00,
    0x02, 0x00, 0x00, 0x00, 0x01, 0x00, 0x00, 0x00, 0xe0, 0x00, 0x00, 0x00, 0xa0,
    0xf5, 0xff, 0xff, 0x00, 0x00, 0x00, 0x09, 0x8c, 0x00, 0x00, 0x00, 0x0e, 0x00,
    0x00, 0x00, 0x5c, 0x00, 0x00, 0x00, 0x1c, 0x00, 0x00, 0x00, 0x04, 0x00, 0x00,
    0x00, 0x04, 0x00, 0x00, 0x00, 0xff, 0xff, 0xff, 0xff, 0x0e, 0x00, 0x00, 0x00,
    0x01, 0x00, 0x00, 0x00, 0x10, 0x00, 0x00, 0x00, 0x8c, 0xf5, 0xff, 0xff, 0x30,
    0x00, 0x00, 0x00, 0x24, 0x00, 0x00, 0x00, 0x18, 0x00, 0x00, 0x00, 0x04, 0x00,
    0x00, 0x00, 0x01, 0x00, 0x00, 0x00, 0x80, 0xff, 0xff, 0xff, 0xff, 0xff, 0xff,
    0xff, 0x00, 0x00, 0x00, 0x00, 0x01, 0x00, 0x00, 0x00, 0xf2, 0x51, 0xd3, 0x40,
    0x01, 0x00, 0x00, 0x00, 0xa0, 0x7e, 0xd2, 0x44, 0x01, 0x00, 0x00, 0x00, 0x00,
    0x00, 0x00, 0x00, 0x22, 0x00, 0x00, 0x00, 0x73, 0x65, 0x71, 0x75, 0x65, 0x6e,
    0x74, 0x69, 0x61, 0x6c, 0x2f, 0x6d, 0x61, 0x78, 0x5f, 0x70, 0x6f, 0x6f, 0x6c,
    0x69, 0x6e, 0x67, 0x32, 0x64, 0x5f, 0x31, 0x2f, 0x4d, 0x61, 0x78, 0x50, 0x6f,
    0x6f, 0x6c, 0x00, 0x00, 0x04, 0x00, 0x00, 0x00, 0x01, 0x00, 0x00, 0x00, 0x0e,
    0x00, 0x00, 0x00, 0x01, 0x00, 0x00, 0x00, 0x10, 0x00, 0x00, 0x00, 0x48, 0xf6,
    0xff, 0xff, 0x00, 0x00, 0x00, 0x09, 0xec, 0x00, 0x00, 0x00, 0x0d, 0x00, 0x00,
    0x00, 0x5c, 0x00, 0x00, 0x00, 0x1c, 0x00, 0x00, 0x00, 0x04, 0x00, 0x00, 0x00,
    0x04, 0x00, 0x00, 0x00, 0xff, 0xff, 0xff, 0xff, 0x2a, 0x00, 0x00, 0x00, 0x01,
    0x00, 0x00, 0x00, 0x10, 0x00, 0x00, 0x00, 0x34, 0xf6, 0xff, 0xff, 0x30, 0x00,
    0x00, 0x00, 0x24, 0x00, 0x00, 0x00, 0x18, 0x00, 0x00, 0x00, 0x04, 0x00, 0x00,
    0x00, 0x01, 0x00, 0x00, 0x00, 0x80, 0xff, 0xff, 0xff, 0xff, 0xff, 0xff, 0xff,
    0x00, 0x00, 0x00, 0x00, 0x01, 0x00, 0x00, 0x00, 0xf2, 0x51, 0xd3, 0x40, 0x01,
    0x00, 0x00, 0x00, 0xa0, 0x7e, 0xd2, 0x44, 0x01, 0x00, 0x00, 0x00, 0x00, 0x00,
    0x00, 0x00, 0x83, 0x00, 0x00, 0x00, 0x73, 0x65, 0x71, 0x75, 0x65, 0x6e, 0x74,
    0x69, 0x61, 0x6c, 0x2f, 0x63, 0x6f, 0x6e, 0x76, 0x32, 0x64, 0x5f, 0x31, 0x2f,
    0x52, 0x65, 0x6c, 0x75, 0x3b, 0x73, 0x65, 0x71, 0x75, 0x65, 0x6e, 0x74, 0x69,
    0x61, 0x6c, 0x2f, 0x63, 0x6f, 0x6e, 0x76, 0x32, 0x64, 0x5f, 0x31, 0x2f, 0x42,
    0x69, 0x61, 0x73, 0x41, 0x64, 0x64, 0x3b, 0x73, 0x65, 0x71, 0x75, 0x65, 0x6e,
    0x74, 0x69, 0x61, 0x6c, 0x2f, 0x63, 0x6f, 0x6e, 0x76, 0x32, 0x64, 0x5f, 0x31,
    0x2f, 0x43, 0x6f, 0x6e, 0x76, 0x32, 0x44, 0x3b, 0x73, 0x65, 0x71, 0x75, 0x65,
    0x6e, 0x74, 0x69, 0x61, 0x6c, 0x2f, 0x63, 0x6f, 0x6e, 0x76, 0x32, 0x64, 0x5f,
    0x31, 0x2f, 0x42, 0x69, 0x61, 0x73, 0x41, 0x64, 0x64, 0x2f, 0x52, 0x65, 0x61,
    0x64, 0x56, 0x61, 0x72, 0x69, 0x61, 0x62, 0x6c, 0x65, 0x4f, 0x70, 0x2f, 0x72,
    0x65, 0x73, 0x6f, 0x75, 0x72, 0x63, 0x65, 0x00, 0x04, 0x00, 0x00, 0x00, 0x01,
    0x00, 0x00, 0x00, 0x2a, 0x00, 0x00, 0x00, 0x01, 0x00, 0x00, 0x00, 0x10, 0x00,
    0x00, 0x00, 0x50, 0xf7, 0xff, 0xff, 0x00, 0x00, 0x00, 0x09, 0x8c, 0x00, 0x00,
    0x00, 0x0c, 0x00, 0x00, 0x00, 0x5c, 0x00, 0x00, 0x00, 0x1c, 0x00, 0x00, 0x00,
    0x04, 0x00, 0x00, 0x00, 0x04, 0x00, 0x00, 0x00, 0xff, 0xff, 0xff, 0xff, 0x2a,
    0x00, 0x00, 0x00, 0x01, 0x00, 0x00, 0x00, 0x08, 0x00, 0x00, 0x00, 0x3c, 0xf7,
    0xff, 0xff, 0x30, 0x00, 0x00, 0x00, 0x24, 0x00, 0x00, 0x00, 0x18, 0x00, 0x00,
    0x00, 0x04, 0x00, 0x00, 0x00, 0x01, 0x00, 0x00, 0x00, 0x80, 0xff, 0xff, 0xff,
    0xff, 0xff, 0xff, 0xff, 0x00, 0x00, 0x00, 0x00, 0x01, 0x00, 0x00, 0x00, 0x91,
    0x7f, 0x3e, 0x41, 0x01, 0x00, 0x00, 0x00, 0x11, 0xc1, 0x3d, 0x45, 0x01, 0x00,
    0x00, 0x00, 0x00, 0x00, 0x00, 0x00, 0x20, 0x00, 0x00, 0x00, 0x73, 0x65, 0x71,
    0x75, 0x65, 0x6e, 0x74, 0x69, 0x61, 0x6c, 0x2f, 0x6d, 0x61, 0x78, 0x5f, 0x70,
    0x6f, 0x6f, 0x6c, 0x69, 0x6e, 0x67, 0x32, 0x64, 0x2f, 0x4d, 0x61, 0x78, 0x50,
    0x6f, 0x6f, 0x6c, 0x00, 0x00, 0x00, 0x00, 0x04, 0x00, 0x00, 0x00, 0x01, 0x00,
    0x00, 0x00, 0x2a, 0x00, 0x00, 0x00, 0x01, 0x00, 0x00, 0x00, 0x08, 0x00, 0x00,
    0x00, 0xf8, 0xf7, 0xff, 0xff, 0x00, 0x00, 0x00, 0x09, 0xe4, 0x00, 0x00, 0x00,
    0x0b, 0x00, 0x00, 0x00, 0x5c, 0x00, 0x00, 0x00, 0x1c, 0x00, 0x00, 0x00, 0x04,
    0x00, 0x00, 0x00, 0x04, 0x00, 0x00, 0x00, 0xff, 0xff, 0xff, 0xff, 0x80, 0x00,
    0x00, 0x00, 0x03, 0x00, 0x00, 0x00, 0x08, 0x00, 0x00, 0x00, 0xe4, 0xf7, 0xff,
    0xff, 0x30, 0x00, 0x00, 0x00, 0x24, 0x00, 0x00, 0x00, 0x18, 0x00, 0x00, 0x00,
    0x04, 0x00, 0x00, 0x00, 0x01, 0x00, 0x00, 0x00, 0x80, 0xff, 0xff, 0xff, 0xff,
    0xff, 0xff, 0xff, 0x00, 0x00, 0x00, 0x00, 0x01, 0x00, 0x00, 0x00, 0x91, 0x7f,
    0x3e, 0x41, 0x01, 0x00, 0x00, 0x00, 0x11, 0xc1, 0x3d, 0x45, 0x01, 0x00, 0x00,
    0x00, 0x00, 0x00, 0x00, 0x00, 0x7b, 0x00, 0x00, 0x00, 0x73, 0x65, 0x71, 0x75,
    0x65, 0x6e, 0x74, 0x69, 0x61, 0x6c, 0x2f, 0x63, 0x6f, 0x6e, 0x76, 0x32, 0x64,
    0x2f, 0x52, 0x65, 0x6c, 0x75, 0x3b, 0x73, 0x65, 0x71, 0x75, 0x65, 0x6e, 0x74,
    0x69, 0x61, 0x6c, 0x2f, 0x63, 0x6f, 0x6e, 0x76, 0x32, 0x64, 0x2f, 0x42, 0x69,
    0x61, 0x73, 0x41, 0x64, 0x64, 0x3b, 0x73, 0x65, 0x71, 0x75, 0x65, 0x6e, 0x74,
    0x69, 0x61, 0x6c, 0x2f, 0x63, 0x6f, 0x6e, 0x76, 0x32, 0x64, 0x2f, 0x43, 0x6f,
    0x6e, 0x76, 0x32, 0x44, 0x3b, 0x73, 0x65, 0x71, 0x75, 0x65, 0x6e, 0x74, 0x69,
    0x61, 0x6c, 0x2f, 0x63, 0x6f, 0x6e, 0x76, 0x32, 0x64, 0x2f, 0x42, 0x69, 0x61,
    0x73, 0x41, 0x64, 0x64, 0x2f, 0x52, 0x65, 0x61, 0x64, 0x56, 0x61, 0x72, 0x69,
    0x61, 0x62, 0x6c, 0x65, 0x4f, 0x70, 0x2f, 0x72, 0x65, 0x73, 0x6f, 0x75, 0x72,
    0x63, 0x65, 0x00, 0x04, 0x00, 0x00, 0x00, 0x01, 0x00, 0x00, 0x00, 0x80, 0x00,
    0x00, 0x00, 0x03, 0x00, 0x00, 0x00, 0x08, 0x00, 0x00, 0x00, 0xe2, 0xf9, 0xff,
    0xff, 0x00, 0x00, 0x00, 0x09, 0x94, 0x01, 0x00, 0x00, 0x0a, 0x00, 0x00, 0x00,
    0x6c, 0x01, 0x00, 0x00, 0x04, 0x00, 0x00, 0x00, 0xcc, 0xf8, 0xff, 0xff, 0x1c,
    0x01, 0x00, 0x00, 0xd4, 0x00, 0x00, 0x00, 0x8c, 0x00, 0x00, 0x00, 0x04, 0x00,
    0x00, 0x00, 0x10, 0x00, 0x00, 0x00, 0x00, 0x00, 0x00, 0x00, 0x00, 0x00, 0x00,
    0x00, 0x00, 0x00, 0x00, 0x00, 0x00, 0x00, 0x00, 0x00, 0x00, 0x00, 0x00, 0x00,
    0x00, 0x00, 0x00, 0x00, 0x00, 0x00, 0x00, 0x00, 0x00, 0x00, 0x00, 0x00, 0x00,
    0x00, 0x00, 0x00, 0x00, 0x00, 0x00, 0x00, 0x00, 0x00, 0x00, 0x00, 0x00, 0x00,
    0x00, 0x00, 0x00, 0x00, 0x00, 0x00, 0x00, 0x00, 0x00, 0x00, 0x00, 0x00, 0x00,
    0x00, 0x00, 0x00, 0x00, 0x00, 0x00, 0x00, 0x00, 0x00, 0x00, 0x00, 0x00, 0x00,
    0x00, 0x00, 0x00, 0x00, 0x00, 0x00, 0x00, 0x00, 0x00, 0x00, 0x00, 0x00, 0x00,
    0x00, 0x00, 0x00, 0x00, 0x00, 0x00, 0x00, 0x00, 0x00, 0x00, 0x00, 0x00, 0x00,
    0x00, 0x00, 0x00, 0x00, 0x00, 0x00, 0x00, 0x00, 0x00, 0x00, 0x00, 0x00, 0x00,
    0x00, 0x00, 0x00, 0x00, 0x00, 0x00, 0x00, 0x00, 0x00, 0x00, 0x00, 0x00, 0x00,
    0x00, 0x00, 0x00, 0x00, 0x10, 0x00, 0x00, 0x00, 0x88, 0xc0, 0xe7, 0x3b, 0x63,
    0xfa, 0xd0, 0x3b, 0x4c, 0x2a, 0x86, 0x3b, 0x24, 0xa2, 0xcb, 0x3b, 0xef, 0x5c,
    0x98, 0x3b, 0x6d, 0x26, 0x47, 0x3b, 0xa8, 0xfe, 0x5f, 0x3b, 0xd2, 0x76, 0x77,
    0x3b, 0x56, 0xdb, 0x9e, 0x3b, 0xe8, 0xc0, 0xae, 0x3b, 0x02, 0x40, 0x3a, 0x3b,
    0xeb, 0xea, 0x31, 0x3b, 0x75, 0x70, 0xe9, 0x3b, 0x53, 0x87, 0x80, 0x3b, 0x41,
    0xb1, 0xa3, 0x3b, 0x9f, 0xd1, 0x18, 0x3b, 0x10, 0x00, 0x00, 0x00, 0x16, 0x9e,
    0x0f, 0x3f, 0x3c, 0xf5, 0x9e, 0x3e, 0xf7, 0x1d, 0x05, 0x3f, 0x61, 0xbd, 0xa5,
    0x3e, 0x89, 0x09, 0x17, 0x3f, 0x20, 0x98, 0xc5, 0x3e, 0xab, 0x3e, 0xde, 0x3e,
    0xe4, 0x87, 0xf5, 0x3e, 0x00, 0x40, 0x80, 0x3e, 0x17, 0x63, 0xa3, 0x3e, 0x53,
    0x56, 0x97, 0x3e, 0x4a, 0x71, 0x97, 0x3e, 0x27, 0x3f, 0x8e, 0x3e, 0xc8, 0xf0,
    0xf9, 0x3e, 0x15, 0x32, 0xc1, 0x3e, 0xfc, 0x9f, 0x97, 0x3e, 0x10, 0x00, 0x00,
    0x00, 0x07, 0xf1, 0x65, 0xbf, 0x6e, 0x58, 0x4f, 0xbf, 0x3f, 0x86, 0xa9, 0xbe,
    0xe0, 0x0a, 0x4a, 0xbf, 0x35, 0x2c, 0x17, 0xbf, 0xca, 0xf8, 0xbe, 0xbe, 0x7c,
    0x47, 0xc8, 0xbe, 0xae, 0x21, 0xb4, 0xbe, 0x9f, 0x9d, 0x1d, 0xbf, 0x66, 0x63,
    0x2d, 0xbf, 0x82, 0xcb, 0xb8, 0xbe, 0x15, 0x87, 0xb0, 0xbe, 0x94, 0x9d, 0x67,
    0xbf, 0x89, 0x0c, 0xff, 0xbe, 0xde, 0x69, 0x22, 0xbf, 0x57, 0x62, 0x15, 0xbe,
    0x1a, 0x00, 0x00, 0x00, 0x73, 0x65, 0x71, 0x75, 0x65, 0x6e, 0x74, 0x69, 0x61,
    0x6c, 0x2f, 0x63, 0x6f, 0x6e, 0x76, 0x32, 0x64, 0x5f, 0x31, 0x2f, 0x43, 0x6f,
    0x6e, 0x76, 0x32, 0x44, 0x00, 0x00, 0x04, 0x00, 0x00, 0x00, 0x10, 0x00, 0x00,
    0x00, 0x04, 0x00, 0x00, 0x00, 0x01, 0x00, 0x00, 0x00, 0x08, 0x00, 0x00, 0x00,
    0x92, 0xfb, 0xff, 0xff, 0x00, 0x00, 0x00, 0x09, 0xf4, 0x00, 0x00, 0x00, 0x09,
    0x00, 0x00, 0x00, 0xcc, 0x00, 0x00, 0x00, 0x04, 0x00, 0x00, 0x00, 0x7c, 0xfa,
    0xff, 0xff, 0x9c, 0x00, 0x00, 0x00, 0x74, 0x00, 0x00, 0x00, 0x4c, 0x00, 0x00,
    0x00, 0x04, 0x00, 0x00, 0x00, 0x08, 0x00, 0x00, 0x00, 0x00, 0x00, 0x00, 0x00,
    0x00, 0x00, 0x00, 0x00, 0x00, 0x00, 0x00, 0x00, 0x00, 0x00, 0x00, 0x00, 0x00,
    0x00, 0x00, 0x00, 0x00, 0x00, 0x00, 0x00, 0x00, 0x00, 0x00, 0x00, 0x00, 0x00,
    0x00, 0x00, 0x00, 0x00, 0x00, 0x00, 0x00, 0x00, 0x00, 0x00, 0x00, 0x00, 0x00,
    0x00, 0x00, 0x00, 0x00, 0x00, 0x00, 0x00, 0x00, 0x00, 0x00, 0x00, 0x00, 0x00,
    0x00, 0x00, 0x00, 0x00, 0x00, 0x00, 0x00, 0x00, 0x08, 0x00, 0x00, 0x00, 0x2d,
    0x18, 0xa6, 0x3a, 0x69, 0x07, 0x70, 0x3b, 0x5c, 0x66, 0xe6, 0x3a, 0x54, 0xd1,
    0x46, 0x3b, 0xad, 0xc2, 0x47, 0x3b, 0xb4, 0x4a, 0x04, 0x3b, 0xb0, 0x56, 0xf3,
    0x3a, 0x82, 0x0f, 0x2a, 0x3b, 0x08, 0x00, 0x00, 0x00, 0xfd, 0xcb, 0x24, 0x3e,
    0x7b, 0x2f, 0x85, 0x3e, 0x08, 0x9a, 0x17, 0x3e, 0xb1, 0x43, 0xc5, 0x3e, 0xec,
    0x4c, 0x7a, 0x3e, 0xd8, 0x82, 0x00, 0x3e, 0xac, 0x2a, 0x22, 0x3e, 0x2c, 0x41,
    0x6c, 0x3e, 0x08, 0x00, 0x00, 0x00, 0x66, 0x16, 0x01, 0xbe, 0x5a, 0x27, 0xee,
    0xbe, 0x8f, 0x99, 0x64, 0xbe, 0x0b, 0xb2, 0x89, 0xbe, 0x28, 0x33, 0xc6, 0xbe,
    0x1f, 0x42, 0x83, 0xbe, 0x03, 0x70, 0x71, 0xbe, 0x63, 0xbb, 0xa8, 0xbe, 0x18,
    0x00, 0x00, 0x00, 0x73, 0x65, 0x71, 0x75, 0x65, 0x6e, 0x74, 0x69, 0x61, 0x6c,
    0x2f, 0x63, 0x6f, 0x6e, 0x76, 0x32, 0x64, 0x2f, 0x43, 0x6f, 0x6e, 0x76, 0x32,
    0x44, 0x00, 0x00, 0x00, 0x00, 0x04, 0x00, 0x00, 0x00, 0x08, 0x00, 0x00, 0x00,
    0x04, 0x00, 0x00, 0x00, 0x03, 0x00, 0x00, 0x00, 0x01, 0x00, 0x00, 0x00, 0xa2,
    0xfc, 0xff, 0xff, 0x00, 0x00, 0x00, 0x09, 0x6c, 0x00, 0x00, 0x00, 0x08, 0x00,
    0x00, 0x00, 0x44, 0x00, 0x00, 0x00, 0x04, 0x00, 0x00, 0x00, 0x8c, 0xfb, 0xff,
    0xff, 0x30, 0x00, 0x00, 0x00, 0x24, 0x00, 0x00, 0x00, 0x18, 0x00, 0x00, 0x00,
    0x04, 0x00, 0x00, 0x00, 0x01, 0x00, 0x00, 0x00, 0x00, 0x00, 0x00, 0x00, 0x00,
    0x00, 0x00, 0x00, 0x00, 0x00, 0x00, 0x00, 0x01, 0x00, 0x00, 0x00, 0xc1, 0x31,
    0x73, 0x3b, 0x01, 0x00, 0x00, 0x00, 0x13, 0xc4, 0xde, 0x3e, 0x01, 0x00, 0x00,
    0x00, 0x5d, 0x4b, 0xf1, 0xbe, 0x19, 0x00, 0x00, 0x00, 0x73, 0x65, 0x71, 0x75,
    0x65, 0x6e, 0x74, 0x69, 0x61, 0x6c, 0x2f, 0x64, 0x65, 0x6e, 0x73, 0x65, 0x5f,
    0x31, 0x2f, 0x4d, 0x61, 0x74, 0x4d, 0x75, 0x6c, 0x00, 0x00, 0x00, 0x02, 0x00,
    0x00, 0x00, 0x04, 0x00, 0x00, 0x00, 0x10, 0x00, 0x00, 0x00, 0x22, 0xfd, 0xff,
    0xff, 0x00, 0x00, 0x00, 0x09, 0x64, 0x00, 0x00, 0x00, 0x07, 0x00, 0x00, 0x00,
    0x40, 0x00, 0x00, 0x00, 0x04, 0x00, 0x00, 0x00, 0x0c, 0xfc, 0xff, 0xff, 0x2c,
    0x00, 0x00, 0x00, 0x20, 0x00, 0x00, 0x00, 0x14, 0x00, 0x00, 0x00, 0x04, 0x00,
    0x00, 0x00, 0x01, 0x00, 0x00, 0x00, 0x00, 0x00, 0x00, 0x00, 0x00, 0x00, 0x00,
    0x00, 0x01, 0x00, 0x00, 0x00, 0x27, 0xf5, 0x08, 0x3c, 0x01, 0x00, 0x00, 0x00,
    0x98, 0x0f, 0x5b, 0x3f, 0x01, 0x00, 0x00, 0x00, 0x3d, 0xe3, 0x87, 0xbf, 0x17,
    0x00, 0x00, 0x00, 0x73, 0x65, 0x71, 0x75, 0x65, 0x6e, 0x74, 0x69, 0x61, 0x6c,
    0x2f, 0x64, 0x65, 0x6e, 0x73, 0x65, 0x2f, 0x4d, 0x61, 0x74, 0x4d, 0x75, 0x6c,
    0x00, 0x02, 0x00, 0x00, 0x00, 0x10, 0x00, 0x00, 0x00, 0xe0, 0x00, 0x00, 0x00,
    0x9a, 0xfd, 0xff, 0xff, 0x00, 0x00, 0x00, 0x02, 0x38, 0x00, 0x00, 0x00, 0x06,
    0x00, 0x00, 0x00, 0x10, 0x00, 0x00, 0x00, 0x08, 0x00, 0x00, 0x00, 0x04, 0x00,
    0x04, 0x00, 0x04, 0x00, 0x00, 0x00, 0x18, 0x00, 0x00, 0x00, 0x73, 0x65, 0x71,
    0x75, 0x65, 0x6e, 0x74, 0x69, 0x61, 0x6c, 0x2f, 0x66, 0x6c, 0x61, 0x74, 0x74,
    0x65, 0x6e, 0x2f, 0x43, 0x6f, 0x6e, 0x73, 0x74, 0x00, 0x00, 0x00, 0x00, 0x01,
    0x00, 0x00, 0x00, 0x02, 0x00, 0x00, 0x00, 0xe2, 0xfd, 0xff, 0xff, 0x00, 0x00,
    0x00, 0x02, 0x68, 0x00, 0x00, 0x00, 0x05, 0x00, 0x00, 0x00, 0x28, 0x00, 0x00,
    0x00, 0x04, 0x00, 0x00, 0x00, 0xd4, 0xfd, 0xff, 0xff, 0x14, 0x00, 0x00, 0x00,
    0x04, 0x00, 0x00, 0x00, 0x01, 0x00, 0x00, 0x00, 0x00, 0x00, 0x00, 0x00, 0x00,
    0x00, 0x00, 0x00, 0x01, 0x00, 0x00, 0x00, 0x7f, 0x5b, 0xd2, 0x3c, 0x32, 0x00,
    0x00, 0x00, 0x73, 0x65, 0x71, 0x75, 0x65, 0x6e, 0x74, 0x69, 0x61, 0x6c, 0x2f,
    0x64, 0x65, 0x6e, 0x73, 0x65, 0x5f, 0x31, 0x2f, 0x42, 0x69, 0x61, 0x73, 0x41,
    0x64, 0x64, 0x2f, 0x52, 0x65, 0x61, 0x64, 0x56, 0x61, 0x72, 0x69, 0x61, 0x62,
    0x6c, 0x65, 0x4f, 0x70, 0x2f, 0x72, 0x65, 0x73, 0x6f, 0x75, 0x72, 0x63, 0x65,
    0x00, 0x00, 0x01, 0x00, 0x00, 0x00, 0x04, 0x00, 0x00, 0x00, 0x5a, 0xfe, 0xff,
    0xff, 0x00, 0x00, 0x00, 0x02, 0x68, 0x00, 0x00, 0x00, 0x04, 0x00, 0x00, 0x00,
    0x28, 0x00, 0x00, 0x00, 0x04, 0x00, 0x00, 0x00, 0x4c, 0xfe, 0xff, 0xff, 0x14,
    0x00, 0x00, 0x00, 0x04, 0x00, 0x00, 0x00, 0x01, 0x00, 0x00, 0x00, 0x00, 0x00,
    0x00, 0x00, 0x00, 0x00, 0x00, 0x00, 0x01, 0x00, 0x00, 0x00, 0xcc, 0x1b, 0x62,
    0x3d, 0x30, 0x00, 0x00, 0x00, 0x73, 0x65, 0x71, 0x75, 0x65, 0x6e, 0x74, 0x69,
    0x61, 0x6c, 0x2f, 0x64, 0x65, 0x6e, 0x73, 0x65, 0x2f, 0x42, 0x69, 0x61, 0x73,
    0x41, 0x64, 0x64, 0x2f, 0x52, 0x65, 0x61, 0x64, 0x56, 0x61, 0x72, 0x69, 0x61,
    0x62, 0x6c, 0x65, 0x4f, 0x70, 0x2f, 0x72, 0x65, 0x73, 0x6f, 0x75, 0x72, 0x63,
    0x65, 0x00, 0x00, 0x00, 0x00, 0x01, 0x00, 0x00, 0x00, 0x10, 0x00, 0x00, 0x00,
    0xd2, 0xfe, 0xff, 0xff, 0x00, 0x00, 0x00, 0x02, 0x1c, 0x01, 0x00, 0x00, 0x03,
    0x00, 0x00, 0x00, 0xdc, 0x00, 0x00, 0x00, 0x04, 0x00, 0x00, 0x00, 0xc4, 0xfe,
    0xff, 0xff, 0x8c, 0x00, 0x00, 0x00, 0x04, 0x00, 0x00, 0x00, 0x10, 0x00, 0x00,
    0x00, 0x00, 0x00, 0x00, 0x00, 0x00, 0x00, 0x00, 0x00, 0x00, 0x00, 0x00, 0x00,
    0x00, 0x00, 0x00, 0x00, 0x00, 0x00, 0x00, 0x00, 0x00, 0x00, 0x00, 0x00, 0x00,
    0x00, 0x00, 0x00, 0x00, 0x00, 0x00, 0x00, 0x00, 0x00, 0x00, 0x00, 0x00, 0x00,
    0x00, 0x00, 0x00, 0x00, 0x00, 0x00, 0x00, 0x00, 0x00, 0x00, 0x00, 0x00, 0x00,
    0x00, 0x00, 0x00, 0x00, 0x00, 0x00, 0x00, 0x00, 0x00, 0x00, 0x00, 0x00, 0x00,
    0x00, 0x00, 0x00, 0x00, 0x00, 0x00, 0x00, 0x00, 0x00, 0x00, 0x00, 0x00, 0x00,
    0x00, 0x00, 0x00, 0x00, 0x00, 0x00, 0x00, 0x00, 0x00, 0x00, 0x00, 0x00, 0x00,
    0x00, 0x00, 0x00, 0x00, 0x00, 0x00, 0x00, 0x00, 0x00, 0x00, 0x00, 0x00, 0x00,
    0x00, 0x00, 0x00, 0x00, 0x00, 0x00, 0x00, 0x00, 0x00, 0x00, 0x00, 0x00, 0x00,
    0x00, 0x00, 0x00, 0x00, 0x00, 0x00, 0x00, 0x00, 0x00, 0x00, 0x00, 0x00, 0x10,
    0x00, 0x00, 0x00, 0x61, 0x74, 0xac, 0x3d, 0xf8, 0x81, 0x9b, 0x3d, 0x7f, 0xac,
    0x47, 0x3d, 0xcf, 0x87, 0x97, 0x3d, 0xcc, 0xc1, 0x62, 0x3d, 0xc2, 0x31, 0x14,
    0x3d, 0x9f, 0xae, 0x26, 0x3d, 0x80, 0x25, 0x38, 0x3d, 0xe5, 0x6b, 0x6c, 0x3d,
    0x41, 0x0a, 0x82, 0x3d, 0x51, 0x98, 0x0a, 0x3d, 0x03, 0x65, 0x04, 0x3d, 0xca,
    0xb5, 0xad, 0x3d, 0xf7, 0x48, 0x3f, 0x3d, 0x40, 0x9e, 0x73, 0x3d, 0x75, 0x6f,
    0xe3, 0x3c, 0x33, 0x00, 0x00, 0x00, 0x73, 0x65, 0x71, 0x75, 0x65, 0x6e, 0x74,
    0x69, 0x61, 0x6c, 0x2f, 0x63, 0x6f, 0x6e, 0x76, 0x32, 0x64, 0x5f, 0x31, 0x2f,
    0x42, 0x69, 0x61, 0x73, 0x41, 0x64, 0x64, 0x2f, 0x52, 0x65, 0x61, 0x64, 0x56,
    0x61, 0x72, 0x69, 0x61, 0x62, 0x6c, 0x65, 0x4f, 0x70, 0x2f, 0x72, 0x65, 0x73,
    0x6f, 0x75, 0x72, 0x63, 0x65, 0x00, 0x01, 0x00, 0x00, 0x00, 0x10, 0x00, 0x00,
    0x00, 0x00, 0x00, 0x0e, 0x00, 0x18, 0x00, 0x08, 0x00, 0x07, 0x00, 0x0c, 0x00,
    0x10, 0x00, 0x14, 0x00, 0x0e, 0x00, 0x00, 0x00, 0x00, 0x00, 0x00, 0x02, 0xcc,
    0x00, 0x00, 0x00, 0x02, 0x00, 0x00, 0x00, 0x8c, 0x00, 0x00, 0x00, 0x10, 0x00,
    0x00, 0x00, 0x0c, 0x00, 0x0c, 0x00, 0x00, 0x00, 0x00, 0x00, 0x04, 0x00, 0x08,
    0x00, 0x0c, 0x00, 0x00, 0x00, 0x50, 0x00, 0x00, 0x00, 0x04, 0x00, 0x00, 0x00,
    0x08, 0x00, 0x00, 0x00, 0x00, 0x00, 0x00, 0x00, 0x00, 0x00, 0x00, 0x00, 0x00,
    0x00, 0x00, 0x00, 0x00, 0x00, 0x00, 0x00, 0x00, 0x00, 0x00, 0x00, 0x00, 0x00,
    0x00, 0x00, 0x00, 0x00, 0x00, 0x00, 0x00, 0x00, 0x00, 0x00, 0x00, 0x00, 0x00,
    0x00, 0x00, 0x00, 0x00, 0x00, 0x00, 0x00, 0x00, 0x00, 0x00, 0x00, 0x00, 0x00,
    0x00, 0x00, 0x00, 0x00, 0x00, 0x00, 0x00, 0x00, 0x00, 0x00, 0x00, 0x00, 0x00,
    0x00, 0x00, 0x00, 0x00, 0x00, 0x00, 0x00, 0x08, 0x00, 0x00, 0x00, 0x70, 0xa1,
    0x15, 0x3d, 0x8b, 0x3c, 0xd8, 0x3d, 0xd6, 0x8f, 0x4f, 0x3d, 0x38, 0x1c, 0xb3,
    0x3d, 0xa5, 0xf5, 0xb3, 0x3d, 0x74, 0x5b, 0x6e, 0x3d, 0xd6, 0x37, 0x5b, 0x3d,
    0x21, 0x34, 0x99, 0x3d, 0x31, 0x00, 0x00, 0x00, 0x73, 0x65, 0x71, 0x75, 0x65,
    0x6e, 0x74, 0x69, 0x61, 0x6c, 0x2f, 0x63, 0x6f, 0x6e, 0x76, 0x32, 0x64, 0x2f,
    0x42, 0x69, 0x61, 0x73, 0x41, 0x64, 0x64, 0x2f, 0x52, 0x65, 0x61, 0x64, 0x56,
    0x61, 0x72, 0x69, 0x61, 0x62, 0x6c, 0x65, 0x4f, 0x70, 0x2f, 0x72, 0x65, 0x73,
    0x6f, 0x75, 0x72, 0x63, 0x65, 0x00, 0x00, 0x00, 0x01, 0x00, 0x00, 0x00, 0x08,
    0x00, 0x00, 0x00, 0x14, 0x00, 0x1c, 0x00, 0x08, 0x00, 0x07, 0x00, 0x0c, 0x00,
    0x10, 0x00, 0x14, 0x00, 0x00, 0x00, 0x00, 0x00, 0x18, 0x00, 0x14, 0x00, 0x00,
    0x00, 0x00, 0x00, 0x00, 0x09, 0x84, 0x00, 0x00, 0x00, 0x01, 0x00, 0x00, 0x00,
    0x68, 0x00, 0x00, 0x00, 0x28, 0x00, 0x00, 0x00, 0x04, 0x00, 0x00, 0x00, 0x04,
    0x00, 0x00, 0x00, 0xff, 0xff, 0xff, 0xff, 0x80, 0x00, 0x00, 0x00, 0x03, 0x00,
    0x00, 0x00, 0x01, 0x00, 0x00, 0x00, 0x0c, 0x00, 0x14, 0x00, 0x04, 0x00, 0x08,
    0x00, 0x0c, 0x00, 0x10, 0x00, 0x0c, 0x00, 0x00, 0x00, 0x30, 0x00, 0x00, 0x00,
    0x24, 0x00, 0x00, 0x00, 0x18, 0x00, 0x00, 0x00, 0x04, 0x00, 0x00, 0x00, 0x01,
    0x00, 0x00, 0x00, 0xff, 0xff, 0xff, 0xff, 0xff, 0xff, 0xff, 0xff, 0x00, 0x00,
    0x00, 0x00, 0x01, 0x00, 0x00, 0x00, 0xdc, 0x9f, 0xe6, 0x41, 0x01, 0x00, 0x00,
    0x00, 0x78, 0xf2, 0x65, 0x45, 0x01, 0x00, 0x00, 0x00, 0x00, 0x80, 0x65, 0xc5,
    0x0c, 0x00, 0x00, 0x00, 0x63, 0x6f, 0x6e, 0x76, 0x32, 0x64, 0x5f, 0x69, 0x6e,
    0x70, 0x75, 0x74, 0x00, 0x00, 0x00, 0x00, 0x04, 0x00, 0x00, 0x00, 0x01, 0x00,
    0x00, 0x00, 0x80, 0x00, 0x00, 0x00, 0x03, 0x00, 0x00, 0x00, 0x01, 0x00, 0x00,
    0x00, 0x05, 0x00, 0x00, 0x00, 0x5c, 0x00, 0x00, 0x00, 0x40, 0x00, 0x00, 0x00,
    0x2c, 0x00, 0x00, 0x00, 0x14, 0x00, 0x00, 0x00, 0x04, 0x00, 0x00, 0x00, 0xc2,
    0xff, 0xff, 0xff, 0x00, 0x00, 0x00, 0x19, 0x02, 0x00, 0x00, 0x00, 0xe6, 0xff,
    0xff, 0xff, 0x00, 0x00, 0x00, 0x09, 0x04, 0x00, 0x00, 0x00, 0x00, 0x00, 0x06,
    0x00, 0x06, 0x00, 0x05, 0x00, 0x06, 0x00, 0x00, 0x00, 0x00, 0x16, 0x0a, 0x00,
    0x0e, 0x00, 0x07, 0x00, 0x00, 0x00, 0x08, 0x00, 0x0a, 0x00, 0x00, 0x00, 0x00,
    0x00, 0x00, 0x11, 0x02, 0x00, 0x00, 0x00, 0x00, 0x00, 0x0a, 0x00, 0x0c, 0x00,
    0x07, 0x00, 0x00, 0x00, 0x08, 0x00, 0x0a, 0x00, 0x00, 0x00, 0x00, 0x00, 0x00,
    0x03, 0x03, 0x00, 0x00, 0x00,
};
const int g_magic_wand_model_data_len = 9248;